#include "magic_wand_model_data.h"

// We need to keep the data array aligned on some architectures.
#ifdef __has_attribute
#define HAVE_ATTRIBUTE(x) __has_attribute(x)
#else
#define HAVE_ATTRIBUTE(x) 0
#endif
#if HAVE_ATTRIBUTE(aligned) || (defined(__GNUC__) && !defined(__clang__))
#define DATA_ALIGN_ATTRIBUTE __attribute__((aligned(4)))
#else
#define DATA_ALIGN_ATTRIBUTE
#endif

const unsigned char g_magic_wand_model_data[] DATA_ALIGN_ATTRIBUTE = {
  0x1c, 0x00, 0x00, 0x00, 0x54, 0x46, 0x4c, 0x33, 0x14, 0x00, 0x20, 0x00,
  0x04, 0x00, 0x08, 0x00, 0x0c, 0x00, 0x10, 0x00, 0x14, 0x00, 0x00, 0x00,
  0x18, 0x00, 0x1c, 0x00, 0x14, 0x00, 0x00, 0x00, 0x03, 0x00, 0x00, 0x00,
  0x18, 0x00, 0x00, 0x00, 0x2c, 0x00, 0x00, 0x00, 0xd8, 0x00, 0x00, 0x00,
  0x2c, 0x00, 0x00, 0x00, 0x80, 0x00, 0x00, 0x00, 0x78, 0x00, 0x00, 0x00,
  0x05, 0x00, 0x00, 0x00, 0x28, 0x07, 0x00, 0x00, 0x44, 0x06, 0x00, 0x00,
  0xbc, 0x03, 0x00, 0x00, 0xf8, 0x02, 0x00, 0x00, 0xac, 0x01, 0x00, 0x00,
  0x01, 0x00, 0x00, 0x00, 0xd0, 0x00, 0x00, 0x00, 0x14, 0x00, 0x00, 0x00,
  0xdc, 0x32, 0x00, 0x00, 0xd8, 0x32, 0x00, 0x00, 0xd0, 0x31, 0x00, 0x00,
  0x1c, 0x31, 0x00, 0x00, 0x74, 0x30, 0x00, 0x00, 0xfc, 0x2f, 0x00, 0x00,
  0x90, 0x2f, 0x00, 0x00, 0x40, 0x13, 0x00, 0x00, 0xec, 0x11, 0x00, 0x00,
  0x10, 0x10, 0x00, 0x00, 0xb4, 0x07, 0x00, 0x00, 0xb0, 0x32, 0x00, 0x00,
  0xac, 0x32, 0x00, 0x00, 0xa8, 0x32, 0x00, 0x00, 0xa4, 0x32, 0x00, 0x00,
  0xa0, 0x32, 0x00, 0x00, 0x9c, 0x32, 0x00, 0x00, 0x98, 0x32, 0x00, 0x00,
  0x94, 0x32, 0x00, 0x00, 0x3c, 0x00, 0x00, 0x00, 0x00, 0x00, 0x00, 0x00,
  0x01, 0x00, 0x00, 0x00, 0x0c, 0x00, 0x00, 0x00, 0x08, 0x00, 0x0c, 0x00,
  0x04, 0x00, 0x08, 0x00, 0x08, 0x00, 0x00, 0x00, 0x08, 0x00, 0x00, 0x00,
  0x13, 0x00, 0x00, 0x00, 0x13, 0x00, 0x00, 0x00, 0x6d, 0x69, 0x6e, 0x5f,
  0x72, 0x75, 0x6e, 0x74, 0x69, 0x6d, 0x65, 0x5f, 0x76, 0x65, 0x72, 0x73,
  0x69, 0x6f, 0x6e, 0x00, 0xb6, 0xce, 0xff, 0xff, 0x04, 0x00, 0x00, 0x00,
  0x10, 0x00, 0x00, 0x00, 0x31, 0x2e, 0x35, 0x2e, 0x30, 0x00, 0x00, 0x00,
  0x00, 0x00, 0x00, 0x00, 0x00, 0x00, 0x00, 0x00, 0x0f, 0x00, 0x00, 0x00,
  0x4d, 0x4c, 0x49, 0x52, 0x20, 0x43, 0x6f, 0x6e, 0x76, 0x65, 0x72, 0x74,
  0x65, 0x64, 0x2e, 0x00, 0x00, 0x00, 0x0e, 0x00, 0x18, 0x00, 0x04, 0x00,
  0x08, 0x00, 0x0c, 0x00, 0x10, 0x00, 0x14, 0x00, 0x0e, 0x00, 0x00, 0x00,
  0x14, 0x00, 0x00, 0x00, 0x5c, 0x00, 0x00, 0x00, 0x60, 0x00, 0x00, 0x00,
  0x64, 0x00, 0x00, 0x00, 0x84, 0x00, 0x00, 0x00, 0x12, 0x00, 0x00, 0x00,
  0x9c, 0x31, 0x00, 0x00, 0x2c, 0x31, 0x00, 0x00, 0x88, 0x30, 0x00, 0x00,
  0xe0, 0x2f, 0x00, 0x00, 0x38, 0x2f, 0x00, 0x00, 0xd4, 0x2e, 0x00, 0x00,
  0x6c, 0x2e, 0x00, 0x00, 0x18, 0x12, 0x00, 0x00, 0xbc, 0x10, 0x00, 0x00,
  0xe0, 0x0e, 0x00, 0x00, 0x0c, 0x06, 0x00, 0x00, 0x28, 0x05, 0x00, 0x00,
  0xe8, 0x03, 0x00, 0x00, 0x3c, 0x03, 0x00, 0x00, 0x98, 0x02, 0x00, 0x00,
  0xd4, 0x01, 0x00, 0x00, 0x10, 0x01, 0x00, 0x00, 0x84, 0x00, 0x00, 0x00,
  0x01, 0x00, 0x00, 0x00, 0x00, 0x00, 0x00, 0x00, 0x01, 0x00, 0x00, 0x00,
  0x11, 0x00, 0x00, 0x00, 0x08, 0x00, 0x00, 0x00, 0x74, 0x05, 0x00, 0x00,
  0x94, 0x04, 0x00, 0x00, 0x78, 0x03, 0x00, 0x00, 0xbc, 0x02, 0x00, 0x00,
  0x30, 0x02, 0x00, 0x00, 0x50, 0x01, 0x00, 0x00, 0xa8, 0x00, 0x00, 0x00,
  0x10, 0x00, 0x00, 0x00, 0x04, 0x00, 0x00, 0x00, 0x6d, 0x61, 0x69, 0x6e,
  0x00, 0x00, 0x00, 0x00, 0x7a, 0xff, 0xff, 0xff, 0x00, 0x00, 0x00, 0x09,
  0x04, 0x00, 0x00, 0x00, 0x1c, 0x00, 0x00, 0x00, 0x10, 0x00, 0x00, 0x00,
  0x04, 0x00, 0x00, 0x00, 0xb2, 0xcf, 0xff, 0xff, 0x00, 0x00, 0x80, 0x3f,
  0x01, 0x00, 0x00, 0x00, 0x11, 0x00, 0x00, 0x00, 0x01, 0x00, 0x00, 0x00,
  0x10, 0x00, 0x00, 0x00, 0xa0, 0xfa, 0xff, 0xff, 0x19, 0x00, 0x00, 0x00,
  0x00, 0x00, 0x00, 0x19, 0x01, 0x00, 0x00, 0x00, 0x40, 0xcf, 0xff, 0xff,
  0x14, 0x00, 0x00, 0x00, 0x12, 0x00, 0x00, 0x00, 0x18, 0x00, 0x00, 0x00,
  0x30, 0x00, 0x00, 0x00, 0x20, 0x00, 0x00, 0x00, 0x02, 0x00, 0x00, 0x00,
  0x01, 0x00, 0x00, 0x00, 0x04, 0x00, 0x00, 0x00, 0x08, 0x00, 0x00, 0x00,
  0x49, 0x64, 0x65, 0x6e, 0x74, 0x69, 0x74, 0x79, 0x00, 0x00, 0x00, 0x00,
  0x02, 0x00, 0x00, 0x00, 0xff, 0xff, 0xff, 0xff, 0x04, 0x00, 0x00, 0x00,
  0x24, 0xd0, 0xff, 0xff, 0x00, 0x00, 0x0e, 0x00, 0x18, 0x00, 0x08, 0x00,
  0x0c, 0x00, 0x10, 0x00, 0x07, 0x00, 0x14, 0x00, 0x0e, 0x00, 0x00, 0x00,
  0x00, 0x00, 0x00, 0x08, 0x03, 0x00, 0x00, 0x00, 0x18, 0x00, 0x00, 0x00,
  0x0c, 0x00, 0x00, 0x00, 0x04, 0x00, 0x00, 0x00, 0x40, 0xcf, 0xff, 0xff,
  0x01, 0x00, 0x00, 0x00, 0x10, 0x00, 0x00, 0x00, 0x03, 0x00, 0x00, 0x00,
  0x0f, 0x00, 0x00, 0x00, 0x07, 0x00, 0x00, 0x00, 0x04, 0x00, 0x00, 0x00,
  0xc8, 0xcf, 0xff, 0xff, 0x14, 0x00, 0x00, 0x00, 0x11, 0x00, 0x00, 0x00,
  0x18, 0x00, 0x00, 0x00, 0x5c, 0x00, 0x00, 0x00, 0x4c, 0x00, 0x00, 0x00,
  0x02, 0x00, 0x00, 0x00, 0x01, 0x00, 0x00, 0x00, 0x04, 0x00, 0x00, 0x00,
  0x34, 0x00, 0x00, 0x00, 0x73, 0x65, 0x71, 0x75, 0x65, 0x6e, 0x74, 0x69,
  0x61, 0x6c, 0x2f, 0x64, 0x65, 0x6e, 0x73, 0x65, 0x5f, 0x31, 0x2f, 0x4d,
  0x61, 0x74, 0x4d, 0x75, 0x6c, 0x3b, 0x73, 0x65, 0x71, 0x75, 0x65, 0x6e,
  0x74, 0x69, 0x61, 0x6c, 0x2f, 0x64, 0x65, 0x6e, 0x73, 0x65, 0x5f, 0x31,
  0x2f, 0x42, 0x69, 0x61, 0x73, 0x41, 0x64, 0x64, 0x00, 0x00, 0x00, 0x00,
  0x02, 0x00, 0x00, 0x00, 0xff, 0xff, 0xff, 0xff, 0x04, 0x00, 0x00, 0x00,
  0xc8, 0xcf, 0xff, 0xff, 0xda, 0xfc, 0xff, 0xff, 0x00, 0x00, 0x00, 0x08,
  0x03, 0x00, 0x00, 0x00, 0x24, 0x00, 0x00, 0x00, 0x18, 0x00, 0x00, 0x00,
  0x0c, 0x00, 0x00, 0x00, 0x00, 0x00, 0x06, 0x00, 0x08, 0x00, 0x07, 0x00,
  0x06, 0x00, 0x00, 0x00, 0x00, 0x00, 0x00, 0x01, 0x01, 0x00, 0x00, 0x00,
  0x0f, 0x00, 0x00, 0x00, 0x03, 0x00, 0x00, 0x00, 0x0e, 0x00, 0x00, 0x00,
  0x06, 0x00, 0x00, 0x00, 0x03, 0x00, 0x00, 0x00, 0xe8, 0xfb, 0xff, 0xff,
  0x09, 0x00, 0x00, 0x00, 0x00, 0x00, 0x00, 0x09, 0x01, 0x00, 0x00, 0x00,
  0x88, 0xd0, 0xff, 0xff, 0x14, 0x00, 0x00, 0x00, 0x10, 0x00, 0x00, 0x00,
  0x18, 0x00, 0x00, 0x00, 0x6c, 0x00, 0x00, 0x00, 0x5c, 0x00, 0x00, 0x00,
  0x02, 0x00, 0x00, 0x00, 0x01, 0x00, 0x00, 0x00, 0x10, 0x00, 0x00, 0x00,
  0x46, 0x00, 0x00, 0x00, 0x73, 0x65, 0x71, 0x75, 0x65, 0x6e, 0x74, 0x69,
  0x61, 0x6c, 0x2f, 0x64, 0x65, 0x6e, 0x73, 0x65, 0x2f, 0x4d, 0x61, 0x74,
  0x4d, 0x75, 0x6c, 0x3b, 0x73, 0x65, 0x71, 0x75, 0x65, 0x6e, 0x74, 0x69,
  0x61, 0x6c, 0x2f, 0x64, 0x65, 0x6e, 0x73, 0x65, 0x2f, 0x52, 0x65, 0x6c,
  0x75, 0x3b, 0x73, 0x65, 0x71, 0x75, 0x65, 0x6e, 0x74, 0x69, 0x61, 0x6c,
  0x2f, 0x64, 0x65, 0x6e, 0x73, 0x65, 0x2f, 0x42, 0x69, 0x61, 0x73, 0x41,
  0x64, 0x64, 0x00, 0x00, 0x02, 0x00, 0x00, 0x00, 0xff, 0xff, 0xff, 0xff,
  0x10, 0x00, 0x00, 0x00, 0xa8, 0xd1, 0xff, 0xff, 0x00, 0x00, 0x0a, 0x00,
  0x10, 0x00, 0x04, 0x00, 0x08, 0x00, 0x0c, 0x00, 0x0a, 0x00, 0x00, 0x00,
  0x02, 0x00, 0x00, 0x00, 0x10, 0x00, 0x00, 0x00, 0x04, 0x00, 0x00, 0x00,
  0x01, 0x00, 0x00, 0x00, 0x0e, 0x00, 0x00, 0x00, 0x02, 0x00, 0x00, 0x00,
  0x0d, 0x00, 0x00, 0x00, 0x05, 0x00, 0x00, 0x00, 0xa8, 0xfc, 0xff, 0xff,
  0x16, 0x00, 0x00, 0x00, 0x00, 0x00, 0x00, 0x16, 0x01, 0x00, 0x00, 0x00,
  0x48, 0xd1, 0xff, 0xff, 0x14, 0x00, 0x00, 0x00, 0x0f, 0x00, 0x00, 0x00,
  0x18, 0x00, 0x00, 0x00, 0x40, 0x00, 0x00, 0x00, 0x30, 0x00, 0x00, 0x00,
  0x02, 0x00, 0x00, 0x00, 0x01, 0x00, 0x00, 0x00, 0x70, 0x00, 0x00, 0x00,
  0x1a, 0x00, 0x00, 0x00, 0x73, 0x65, 0x71, 0x75, 0x65, 0x6e, 0x74, 0x69,
  0x61, 0x6c, 0x2f, 0x66, 0x6c, 0x61, 0x74, 0x74, 0x65, 0x6e, 0x2f, 0x52,
  0x65, 0x73, 0x68, 0x61, 0x70, 0x65, 0x00, 0x00, 0x02, 0x00, 0x00, 0x00,
  0xff, 0xff, 0xff, 0xff, 0x70, 0x00, 0x00, 0x00, 0x2c, 0xd1, 0xff, 0xff,
  0x3e, 0xfe, 0xff, 0xff, 0x00, 0x00, 0x00, 0x05, 0x01, 0x00, 0x00, 0x00,
  0x38, 0x00, 0x00, 0x00, 0x2c, 0x00, 0x00, 0x00, 0x14, 0x00, 0x00, 0x00,
  0x00, 0x00, 0x0e, 0x00, 0x14, 0x00, 0x00, 0x00, 0x10, 0x00, 0x0c, 0x00,
  0x08, 0x00, 0x04, 0x00, 0x0e, 0x00, 0x00, 0x00, 0x03, 0x00, 0x00, 0x00,
  0x01, 0x00, 0x00, 0x00, 0x03, 0x00, 0x00, 0x00, 0x01, 0x00, 0x00, 0x00,
  0x01, 0x00, 0x00, 0x00, 0x0d, 0x00, 0x00, 0x00, 0x01, 0x00, 0x00, 0x00,
  0x0c, 0x00, 0x00, 0x00, 0xe8, 0xd1, 0xff, 0xff, 0x14, 0x00, 0x00, 0x00,
  0x0e, 0x00, 0x00, 0x00, 0x20, 0x00, 0x00, 0x00, 0x58, 0x00, 0x00, 0x00,
  0x40, 0x00, 0x00, 0x00, 0x04, 0x00, 0x00, 0x00, 0x01, 0x00, 0x00, 0x00,
  0x07, 0x00, 0x00, 0x00, 0x01, 0x00, 0x00, 0x00, 0x10, 0x00, 0x00, 0x00,
  0x22, 0x00, 0x00, 0x00, 0x73, 0x65, 0x71, 0x75, 0x65, 0x6e, 0x74, 0x69,
  0x61, 0x6c, 0x2f, 0x6d, 0x61, 0x78, 0x5f, 0x70, 0x6f, 0x6f, 0x6c, 0x69,
  0x6e, 0x67, 0x32, 0x64, 0x5f, 0x31, 0x2f, 0x4d, 0x61, 0x78, 0x50, 0x6f,
  0x6f, 0x6c, 0x00, 0x00, 0x04, 0x00, 0x00, 0x00, 0xff, 0xff, 0xff, 0xff,
  0x07, 0x00, 0x00, 0x00, 0x01, 0x00, 0x00, 0x00, 0x10, 0x00, 0x00, 0x00,
  0xe4, 0xd1, 0xff, 0xff, 0x1a, 0xfe, 0xff, 0xff, 0x00, 0x00, 0x00, 0x01,
  0x24, 0x00, 0x00, 0x00, 0x18, 0x00, 0x00, 0x00, 0x04, 0x00, 0x00, 0x00,
  0x0c, 0xfe, 0xff, 0xff, 0x01, 0x00, 0x00, 0x00, 0x01, 0x00, 0x00, 0x00,
  0x00, 0x00, 0x00, 0x01, 0x01, 0x00, 0x00, 0x00, 0x0c, 0x00, 0x00, 0x00,
  0x03, 0x00, 0x00, 0x00, 0x0b, 0x00, 0x00, 0x00, 0x09, 0x00, 0x00, 0x00,
  0x02, 0x00, 0x00, 0x00, 0x90, 0xd2, 0xff, 0xff, 0x14, 0x00, 0x00, 0x00,
  0x0d, 0x00, 0x00, 0x00, 0x20, 0x00, 0x00, 0x00, 0xb8, 0x00, 0x00, 0x00,
  0xa0, 0x00, 0x00, 0x00, 0x04, 0x00, 0x00, 0x00, 0x01, 0x00, 0x00, 0x00,
  0x15, 0x00, 0x00, 0x00, 0x01, 0x00, 0x00, 0x00, 0x10, 0x00, 0x00, 0x00,
  0x83, 0x00, 0x00, 0x00, 0x73, 0x65, 0x71, 0x75, 0x65, 0x6e, 0x74, 0x69,
  0x61, 0x6c, 0x2f, 0x63, 0x6f, 0x6e, 0x76, 0x32, 0x64, 0x5f, 0x31, 0x2f,
  0x52, 0x65, 0x6c, 0x75, 0x3b, 0x73, 0x65, 0x71, 0x75, 0x65, 0x6e, 0x74,
  0x69, 0x61, 0x6c, 0x2f, 0x63, 0x6f, 0x6e, 0x76, 0x32, 0x64, 0x5f, 0x31,
  0x2f, 0x42, 0x69, 0x61, 0x73, 0x41, 0x64, 0x64, 0x3b, 0x73, 0x65, 0x71,
  0x75, 0x65, 0x6e, 0x74, 0x69, 0x61, 0x6c, 0x2f, 0x63, 0x6f, 0x6e, 0x76,
  0x32, 0x64, 0x5f, 0x31, 0x2f, 0x43, 0x6f, 0x6e, 0x76, 0x32, 0x44, 0x3b,
  0x73, 0x65, 0x71, 0x75, 0x65, 0x6e, 0x74, 0x69, 0x61, 0x6c, 0x2f, 0x63,
  0x6f, 0x6e, 0x76, 0x32, 0x64, 0x5f, 0x31, 0x2f, 0x42, 0x69, 0x61, 0x73,
  0x41, 0x64, 0x64, 0x2f, 0x52, 0x65, 0x61, 0x64, 0x56, 0x61, 0x72, 0x69,
  0x61, 0x62, 0x6c, 0x65, 0x4f, 0x70, 0x2f, 0x72, 0x65, 0x73, 0x6f, 0x75,
  0x72, 0x63, 0x65, 0x00, 0x04, 0x00, 0x00, 0x00, 0xff, 0xff, 0xff, 0xff,
  0x15, 0x00, 0x00, 0x00, 0x01, 0x00, 0x00, 0x00, 0x10, 0x00, 0x00, 0x00,
  0xfc, 0xd3, 0xff, 0xff, 0x00, 0x00, 0x0e, 0x00, 0x1a, 0x00, 0x08, 0x00,
  0x0c, 0x00, 0x10, 0x00, 0x07, 0x00, 0x14, 0x00, 0x0e, 0x00, 0x00, 0x00,
  0x00, 0x00, 0x00, 0x05, 0x01, 0x00, 0x00, 0x00, 0x3c, 0x00, 0x00, 0x00,
  0x30, 0x00, 0x00, 0x00, 0x14, 0x00, 0x00, 0x00, 0x00, 0x00, 0x0e, 0x00,
  0x18, 0x00, 0x17, 0x00, 0x10, 0x00, 0x0c, 0x00, 0x08, 0x00, 0x04, 0x00,
  0x0e, 0x00, 0x00, 0x00, 0x03, 0x00, 0x00, 0x00, 0x03, 0x00, 0x00, 0x00,
  0x03, 0x00, 0x00, 0x00, 0x03, 0x00, 0x00, 0x00, 0x00, 0x00, 0x00, 0x01,
  0x01, 0x00, 0x00, 0x00, 0x0b, 0x00, 0x00, 0x00, 0x01, 0x00, 0x00, 0x00,
  0x0a, 0x00, 0x00, 0x00, 0x2c, 0xff, 0xff, 0xff, 0x11, 0x00, 0x00, 0x00,
  0x00, 0x00, 0x00, 0x11, 0x01, 0x00, 0x00, 0x00, 0xcc, 0xd3, 0xff, 0xff,
  0x14, 0x00, 0x00, 0x00, 0x0c, 0x00, 0x00, 0x00, 0x20, 0x00, 0x00, 0x00,
  0x58, 0x00, 0x00, 0x00, 0x40, 0x00, 0x00, 0x00, 0x04, 0x00, 0x00, 0x00,
  0x01, 0x00, 0x00, 0x00, 0x15, 0x00, 0x00, 0x00, 0x01, 0x00, 0x00, 0x00,
  0x08, 0x00, 0x00, 0x00, 0x20, 0x00, 0x00, 0x00, 0x73, 0x65, 0x71, 0x75,
  0x65, 0x6e, 0x74, 0x69, 0x61, 0x6c, 0x2f, 0x6d, 0x61, 0x78, 0x5f, 0x70,
  0x6f, 0x6f, 0x6c, 0x69, 0x6e, 0x67, 0x32, 0x64, 0x2f, 0x4d, 0x61, 0x78,
  0x50, 0x6f, 0x6f, 0x6c, 0x00, 0x00, 0x00, 0x00, 0x04, 0x00, 0x00, 0x00,
  0xff, 0xff, 0xff, 0xff, 0x15, 0x00, 0x00, 0x00, 0x01, 0x00, 0x00, 0x00,
  0x08, 0x00, 0x00, 0x00, 0xd8, 0xd4, 0xff, 0xff, 0x00, 0x00, 0x0e, 0x00,
  0x14, 0x00, 0x00, 0x00, 0x08, 0x00, 0x0c, 0x00, 0x07, 0x00, 0x10, 0x00,
  0x0e, 0x00, 0x00, 0x00, 0x00, 0x00, 0x00, 0x01, 0x30, 0x00, 0x00, 0x00,
  0x24, 0x00, 0x00, 0x00, 0x10, 0x00, 0x00, 0x00, 0x0c, 0x00, 0x10, 0x00,
  0x00, 0x00, 0x04, 0x00, 0x08, 0x00, 0x0f, 0x00, 0x0c, 0x00, 0x00, 0x00,
  0x01, 0x00, 0x00, 0x00, 0x01, 0x00, 0x00, 0x00, 0x00, 0x00, 0x00, 0x01,
  0x01, 0x00, 0x00, 0x00, 0x0a, 0x00, 0x00, 0x00, 0x03, 0x00, 0x00, 0x00,
  0x00, 0x00, 0x00, 0x00, 0x08, 0x00, 0x00, 0x00, 0x01, 0x00, 0x00, 0x00,
  0x0c, 0x00, 0x10, 0x00, 0x0b, 0x00, 0x00, 0x00, 0x0c, 0x00, 0x04, 0x00,
  0x0c, 0x00, 0x00, 0x00, 0x03, 0x00, 0x00, 0x00, 0x00, 0x00, 0x00, 0x03,
  0x01, 0x00, 0x00, 0x00, 0xac, 0xd4, 0xff, 0xff, 0x14, 0x00, 0x00, 0x00,
  0x0b, 0x00, 0x00, 0x00, 0x20, 0x00, 0x00, 0x00, 0xb0, 0x00, 0x00, 0x00,
  0x98, 0x00, 0x00, 0x00, 0x04, 0x00, 0x00, 0x00, 0x01, 0x00, 0x00, 0x00,
  0x40, 0x00, 0x00, 0x00, 0x03, 0x00, 0x00, 0x00, 0x08, 0x00, 0x00, 0x00,
  0x7b, 0x00, 0x00, 0x00, 0x73, 0x65, 0x71, 0x75, 0x65, 0x6e, 0x74, 0x69,
  0x61, 0x6c, 0x2f, 0x63, 0x6f, 0x6e, 0x76, 0x32, 0x64, 0x2f, 0x52, 0x65,
  0x6c, 0x75, 0x3b, 0x73, 0x65, 0x71, 0x75, 0x65, 0x6e, 0x74, 0x69, 0x61,
  0x6c, 0x2f, 0x63, 0x6f, 0x6e, 0x76, 0x32, 0x64, 0x2f, 0x42, 0x69, 0x61,
  0x73, 0x41, 0x64, 0x64, 0x3b, 0x73, 0x65, 0x71, 0x75, 0x65, 0x6e, 0x74,
  0x69, 0x61, 0x6c, 0x2f, 0x63, 0x6f, 0x6e, 0x76, 0x32, 0x64, 0x2f, 0x43,
  0x6f, 0x6e, 0x76, 0x32, 0x44, 0x3b, 0x73, 0x65, 0x71, 0x75, 0x65, 0x6e,
  0x74, 0x69, 0x61, 0x6c, 0x2f, 0x63, 0x6f, 0x6e, 0x76, 0x32, 0x64, 0x2f,
  0x42, 0x69, 0x61, 0x73, 0x41, 0x64, 0x64, 0x2f, 0x52, 0x65, 0x61, 0x64,
  0x56, 0x61, 0x72, 0x69, 0x61, 0x62, 0x6c, 0x65, 0x4f, 0x70, 0x2f, 0x72,
  0x65, 0x73, 0x6f, 0x75, 0x72, 0x63, 0x65, 0x00, 0x04, 0x00, 0x00, 0x00,
  0xff, 0xff, 0xff, 0xff, 0x40, 0x00, 0x00, 0x00, 0x03, 0x00, 0x00, 0x00,
  0x08, 0x00, 0x00, 0x00, 0x00, 0xd5, 0xff, 0xff, 0x0a, 0xd6, 0xff, 0xff,
  0x04, 0x00, 0x00, 0x00, 0x00, 0x08, 0x00, 0x00, 0x36, 0x09, 0xfe, 0x3d,
  0x95, 0xcb, 0xfa, 0xbd, 0xc5, 0x97, 0xa2, 0xbc, 0xd0, 0x01, 0x93, 0xbd,
  0x75, 0xd2, 0x26, 0x3e, 0xdf, 0x45, 0xb9, 0xbd, 0x87, 0x94, 0xa3, 0x3d,
  0x04, 0x78, 0xb0, 0xbd, 0xde, 0x35, 0x06, 0xbf, 0x1e, 0x93, 0x86, 0xbd,
  0xab, 0x9b, 0x03, 0xbb, 0xf3, 0x53, 0x7e, 0x3d, 0xa2, 0xa5, 0x3e, 0x3e,
  0x09, 0xdf, 0xe6, 0xbb, 0x8a, 0x3d, 0x68, 0x3e, 0x86, 0xfc, 0xc3, 0xbd,
  0x6b, 0x6a, 0x90, 0x3e, 0x39, 0xeb, 0x90, 0xbd, 0x0b, 0x6b, 0x8f, 0x3d,
  0x01, 0x89, 0x43, 0x3d, 0xba, 0x65, 0x91, 0x3c, 0xc1, 0x75, 0x7b, 0x3e,
  0x75, 0x36, 0x0c, 0xbd, 0xb6, 0x77, 0xb0, 0xbd, 0xab, 0x73, 0x32, 0xbd,
  0xd9, 0x84, 0x28, 0xbc, 0xa7, 0x7e, 0x78, 0xbc, 0xb2, 0x0a, 0x9e, 0xbd,
  0x96, 0xa4, 0x0a, 0xbd, 0xc3, 0x3b, 0x5d, 0xbd, 0x1b, 0x9b, 0xee, 0x3d,
  0xd3, 0xc0, 0x49, 0xbd, 0x69, 0xc5, 0x43, 0xbe, 0x59, 0xce, 0xdc, 0xbd,
  0xab, 0x73, 0xc4, 0xbd, 0x43, 0xc0, 0x3b, 0xbe, 0xc8, 0x80, 0x12, 0xbf,
  0xe0, 0x28, 0x70, 0xbe, 0xc1, 0xf8, 0x5f, 0xbe, 0x6e, 0x72, 0xca, 0xbd,
  0x87, 0xd6, 0x2a, 0x3e, 0xcb, 0x58, 0xb5, 0xbd, 0xfe, 0x1b, 0xe8, 0xbd,
  0x1c, 0x6b, 0x36, 0xbe, 0x98, 0x07, 0x4d, 0xbe, 0xbc, 0x69, 0x6f, 0xbe,
  0xbe, 0x56, 0x44, 0xbe, 0x8f, 0x57, 0x2e, 0x3b, 0xff, 0x43, 0x91, 0x3e,
  0xb6, 0x56, 0x7e, 0x3b, 0x4a, 0x89, 0xcd, 0xbb, 0xda, 0x1d, 0xd1, 0x3e,
  0x65, 0x5f, 0xda, 0x3e, 0x4d, 0x7e, 0x3a, 0xbd, 0x58, 0xad, 0x30, 0x3d,
  0x1c, 0x03, 0x0e, 0x3d, 0x4c, 0x32, 0xfc, 0xbd, 0x93, 0x6c, 0x03, 0x3e,
  0x8f, 0xf1, 0x94, 0xbc, 0x45, 0x32, 0xcf, 0x3d, 0x9f, 0x3b, 0x64, 0x3e,
  0xe6, 0xa4, 0x1f, 0x3d, 0xb0, 0x20, 0xe0, 0x3d, 0x0c, 0x9b, 0xcd, 0xbd,
  0xa1, 0x28, 0x2d, 0xbf, 0x2d, 0x82, 0x34, 0xbf, 0xa4, 0xc0, 0x05, 0xbe,
  0xd6, 0x0e, 0x52, 0x3d, 0xdd, 0x35, 0x4b, 0x3d, 0xd0, 0xf6, 0x65, 0xbe,
  0x58, 0x6e, 0x84, 0xbe, 0xda, 0xa0, 0xd5, 0xbe, 0xdb, 0x61, 0xdd, 0x3d,
  0x9b, 0x29, 0xad, 0xbf, 0x29, 0xaa, 0xb7, 0xbc, 0xec, 0xf8, 0x4b, 0x3c,
  0x54, 0xff, 0xbe, 0x3e, 0xf2, 0x8f, 0x15, 0xbf, 0xe9, 0xfe, 0x6d, 0x3d,
  0x7a, 0x6f, 0x94, 0xbe, 0xfa, 0xe0, 0x8f, 0x3e, 0x0f, 0x74, 0x25, 0xbf,
  0x2d, 0x2a, 0x98, 0x3c, 0x08, 0xe1, 0xf9, 0xbe, 0x9b, 0x78, 0x8c, 0xbc,
  0xa6, 0x16, 0x7f, 0x3e, 0x18, 0x9d, 0xb9, 0x3a, 0xdf, 0xa4, 0x53, 0xbd,
  0x4e, 0xf9, 0xc7, 0x3d, 0xef, 0x6f, 0x8f, 0x3d, 0x44, 0x5e, 0x9a, 0xbc,
  0x32, 0xac, 0xc1, 0xbe, 0x5d, 0x21, 0x29, 0xbe, 0xa3, 0x95, 0xcb, 0x3e,
  0x24, 0x91, 0x64, 0x3d, 0x75, 0x02, 0xd8, 0x3d, 0x74, 0xe0, 0xdb, 0x3d,
  0x64, 0xc0, 0x12, 0xbe, 0xa2, 0x0b, 0xfe, 0xbd, 0xdd, 0x29, 0x78, 0xbe,
  0xb8, 0xed, 0x03, 0xbf, 0x14, 0xd7, 0xf7, 0xbd, 0x71, 0x98, 0xba, 0x3d,
  0xc4, 0x38, 0x9b, 0xbd, 0x7a, 0xc3, 0x8d, 0x3e, 0x13, 0xb3, 0x79, 0x3c,
  0xf0, 0xc4, 0x9c, 0xbe, 0x28, 0x28, 0xf7, 0x3d, 0x7b, 0xc5, 0xd2, 0x3c,
  0xfa, 0x63, 0x5c, 0x3e, 0x49, 0xbc, 0xf4, 0x3a, 0x71, 0xf6, 0xc5, 0xbc,
  0xb6, 0x14, 0x2f, 0xbf, 0x0e, 0xbe, 0x62, 0xbe, 0x7f, 0x11, 0x72, 0xbe,
  0x27, 0x53, 0x64, 0x3e, 0x87, 0xa7, 0x51, 0x3d, 0xf0, 0x3a, 0x6e, 0x3e,
  0x7b, 0x91, 0xeb, 0xbe, 0x00, 0x99, 0x79, 0xbe, 0xd9, 0xaf, 0xd4, 0xbd,
  0x93, 0x60, 0x71, 0xbe, 0xc7, 0x3e, 0xbf, 0x3d, 0xee, 0x00, 0x39, 0xbd,
  0x4d, 0x57, 0xbe, 0x3e, 0x2c, 0x25, 0x52, 0xbe, 0x51, 0x07, 0x5f, 0xbe,
  0xa1, 0x70, 0xc4, 0xbe, 0x83, 0xaa, 0x84, 0x3e, 0xdc, 0x6f, 0x71, 0x3d,
  0x75, 0x11, 0x93, 0xbe, 0x03, 0x01, 0xc1, 0xbd, 0xcd, 0x83, 0xaf, 0x3d,
  0x88, 0xe7, 0x1b, 0x3b, 0x28, 0x33, 0x1a, 0xbe, 0x8a, 0x9f, 0xf9, 0xbc,
  0x5f, 0x8d, 0x5b, 0x3f, 0xbd, 0x28, 0x4c, 0x3c, 0x15, 0xd6, 0x9d, 0xbe,
  0x71, 0x8a, 0xd5, 0xbb, 0x66, 0x16, 0xc5, 0xbb, 0x4b, 0xe9, 0x3c, 0xbd,
  0x2a, 0xe3, 0x7b, 0xbd, 0x31, 0x56, 0x23, 0xbd, 0xd8, 0xf6, 0x24, 0xbd,
  0xbb, 0xff, 0x5c, 0xbd, 0x20, 0xbe, 0xba, 0xbe, 0x1b, 0x54, 0x28, 0xbd,
  0x90, 0x47, 0x25, 0x3e, 0x47, 0xe2, 0x56, 0xbd, 0x3a, 0xd5, 0x17, 0xbe,
  0xed, 0xcc, 0x52, 0xbd, 0x6a, 0x28, 0xba, 0x3e, 0x6e, 0xd0, 0x08, 0xbe,
  0x08, 0xb0, 0x29, 0xbe, 0xda, 0x01, 0x8a, 0xbc, 0x7b, 0x03, 0x72, 0x3e,
  0x7e, 0xf8, 0x7c, 0xbc, 0x37, 0xf2, 0xaa, 0xbd, 0x96, 0xf1, 0x96, 0xbd,
  0x13, 0x3e, 0x43, 0xbe, 0x3d, 0x09, 0x29, 0xbe, 0x1b, 0x2a, 0x82, 0xbd,
  0xfd, 0x6a, 0x04, 0xbe, 0x52, 0xb8, 0x56, 0xbd, 0x51, 0x16, 0x05, 0xbd,
  0xa6, 0x8c, 0x50, 0xbf, 0x81, 0x64, 0x93, 0xbe, 0x48, 0xdf, 0xb3, 0xbd,
  0x54, 0x0f, 0x49, 0x3e, 0x0d, 0x00, 0x49, 0x3e, 0x9d, 0x02, 0xda, 0xbc,
  0xf5, 0xb7, 0x95, 0x3e, 0xab, 0xef, 0x04, 0xbe, 0xdd, 0xff, 0xac, 0xbd,
  0xe9, 0x98, 0x52, 0xbe, 0xef, 0xe3, 0xad, 0x3d, 0xb4, 0xdb, 0xa8, 0x3d,
  0x7a, 0x75, 0x46, 0xbd, 0x9b, 0x3d, 0x29, 0xbe, 0x64, 0x0b, 0x4f, 0xbe,
  0x88, 0xaa, 0x6a, 0xbe, 0xc2, 0x29, 0xf7, 0xbd, 0xa1, 0x9e, 0x60, 0xbe,
  0x74, 0x97, 0x8a, 0xbd, 0xfa, 0xdc, 0x60, 0x3e, 0xe1, 0xec, 0xc1, 0xbd,
  0xe1, 0xe5, 0x62, 0xbd, 0x21, 0x04, 0xba, 0xbd, 0x8f, 0x3b, 0x34, 0x3d,
  0x44, 0x07, 0x5b, 0xbe, 0x97, 0x62, 0x5a, 0xbe, 0x99, 0xf6, 0x3e, 0x3e,
  0x6d, 0xa8, 0x88, 0x3d, 0x5a, 0x73, 0x64, 0x3d, 0x7e, 0x96, 0x1a, 0x3f,
  0x78, 0x12, 0x28, 0x3d, 0xc2, 0x00, 0x59, 0xbe, 0x52, 0xea, 0x3c, 0x3d,
  0x31, 0x71, 0x04, 0xbe, 0x52, 0x00, 0x27, 0x3d, 0xbf, 0x5b, 0x1c, 0xbd,
  0x37, 0xac, 0xcb, 0xbd, 0xc2, 0x21, 0x1e, 0xbe, 0x06, 0xb1, 0x50, 0xbd,
  0xe2, 0x3e, 0xc1, 0xbd, 0x03, 0x2a, 0x27, 0xbd, 0xb7, 0x6b, 0x95, 0xbe,
  0x59, 0x62, 0x0f, 0x3e, 0xdd, 0x71, 0x59, 0xbd, 0x1c, 0x2c, 0xad, 0xbd,
  0xec, 0x83, 0xfc, 0xbd, 0x75, 0xe1, 0x89, 0xbe, 0x19, 0x3d, 0xa6, 0x3c,
  0x8d, 0xbc, 0x6d, 0x3c, 0x75, 0x7e, 0x00, 0xbe, 0x88, 0xcf, 0x8f, 0x3e,
  0xc8, 0x36, 0x0e, 0xbe, 0x7f, 0x19, 0xf1, 0xbd, 0x58, 0xde, 0x47, 0xbe,
  0xd1, 0x5f, 0x9f, 0xbe, 0xfc, 0x47, 0x87, 0x3d, 0xbc, 0x92, 0x42, 0xbd,
  0xee, 0xf7, 0x99, 0xbc, 0x31, 0x82, 0x30, 0x3f, 0xac, 0x63, 0x66, 0xbd,
  0xd8, 0x3d, 0xc8, 0xbe, 0x36, 0xd0, 0xb4, 0xbd, 0xf1, 0xf9, 0xf4, 0x3c,
  0x2e, 0x29, 0x6b, 0xbd, 0xd9, 0x56, 0xf0, 0xbc, 0x48, 0x0d, 0xdf, 0x3c,
  0x8b, 0xf8, 0x1a, 0xbd, 0x00, 0xcb, 0x8e, 0xbd, 0x89, 0x12, 0xcd, 0xbe,
  0x11, 0x59, 0x95, 0x3d, 0xc6, 0x91, 0x78, 0x3e, 0xfa, 0x9f, 0xa8, 0x3d,
  0x6c, 0x9f, 0xc9, 0xbd, 0x89, 0xbe, 0xe3, 0x3b, 0x99, 0x54, 0x82, 0xbe,
  0x9e, 0x56, 0xcb, 0xbc, 0xcd, 0x6e, 0x17, 0xbe, 0x7b, 0x6b, 0x65, 0x3d,
  0xcf, 0x24, 0xf8, 0x3b, 0x28, 0xe4, 0x01, 0xbd, 0x13, 0x4a, 0x1e, 0xbe,
  0x77, 0x0e, 0xa1, 0x3b, 0xb8, 0x7d, 0x95, 0xbd, 0xda, 0xb7, 0xad, 0x3c,
  0xcc, 0xc9, 0x16, 0xbd, 0x39, 0xab, 0xd4, 0xbc, 0xa5, 0x2b, 0xbe, 0xbe,
  0x3f, 0x7f, 0xb3, 0xbc, 0x01, 0x75, 0x8d, 0xbd, 0x70, 0x80, 0x5d, 0xbd,
  0xe8, 0xa7, 0xb9, 0xbe, 0x5d, 0xf7, 0x97, 0xbc, 0x43, 0x87, 0x15, 0xbf,
  0x3b, 0x12, 0xab, 0x3c, 0x48, 0x05, 0xd0, 0xbd, 0xd4, 0x31, 0x03, 0x3f,
  0xbb, 0xe6, 0x79, 0xbd, 0x30, 0x43, 0x96, 0xbd, 0xda, 0xb0, 0x6e, 0x3d,
  0x0b, 0x9c, 0xf9, 0xbd, 0xfc, 0x86, 0xc8, 0xbd, 0x49, 0xbb, 0x1b, 0xbd,
  0x14, 0x8d, 0xec, 0x3e, 0x35, 0x5b, 0x30, 0xbc, 0xce, 0x88, 0x81, 0xbd,
  0x34, 0x16, 0x55, 0xbe, 0xd5, 0x27, 0xb9, 0xbb, 0x02, 0x6b, 0xec, 0xbd,
  0x95, 0x1e, 0xa0, 0xbb, 0x7a, 0xdd, 0x0e, 0x3e, 0xb1, 0x53, 0x01, 0xbe,
  0xa5, 0x47, 0x97, 0x3c, 0x92, 0x9c, 0x4d, 0xbd, 0x50, 0x3a, 0x2e, 0xbe,
  0x7a, 0x09, 0xe4, 0xbc, 0xb0, 0xd4, 0xda, 0xbd, 0x32, 0xc2, 0x74, 0x3d,
  0x80, 0x1b, 0x7c, 0xbe, 0xf7, 0xdf, 0x38, 0xbe, 0xe7, 0x29, 0x65, 0xbe,
  0x68, 0x69, 0x89, 0xbd, 0x96, 0xcf, 0x01, 0x3e, 0x04, 0x48, 0xea, 0x3c,
  0x6f, 0x35, 0x78, 0xbd, 0xbd, 0x2c, 0x63, 0xbd, 0x5e, 0x3d, 0x19, 0xbe,
  0x8f, 0xa4, 0xef, 0x3a, 0xcc, 0x40, 0x89, 0x3e, 0xb2, 0xe6, 0x26, 0x3f,
  0x3b, 0x33, 0x4e, 0xbe, 0x54, 0xee, 0x32, 0xbd, 0x98, 0x6d, 0x0f, 0xbd,
  0x56, 0xd4, 0xb5, 0xbe, 0x4e, 0x7a, 0x57, 0xbe, 0xac, 0x7b, 0xd4, 0xbd,
  0x58, 0x4e, 0x72, 0xbd, 0xa0, 0x68, 0xf9, 0xbd, 0x5f, 0xfa, 0x15, 0xbe,
  0xd0, 0x3b, 0x25, 0xbd, 0xad, 0xdc, 0x9a, 0x3c, 0x4c, 0xe2, 0x94, 0xbe,
  0xb0, 0x1c, 0xde, 0xbd, 0x2c, 0xf9, 0x98, 0x3d, 0x8f, 0x44, 0xdf, 0xbc,
  0xab, 0x49, 0x22, 0xbe, 0xbf, 0xc6, 0x30, 0xbd, 0xe7, 0x23, 0xbf, 0xbc,
  0xd6, 0x82, 0x14, 0xbd, 0xbe, 0x7c, 0xf2, 0xbd, 0x86, 0x78, 0xa6, 0x3b,
  0x9f, 0xb1, 0x5f, 0x3e, 0x2b, 0x83, 0x03, 0xbe, 0x73, 0x07, 0x74, 0xbe,
  0x51, 0xa2, 0x97, 0x3d, 0x3e, 0xb7, 0x9a, 0xbe, 0xac, 0x2d, 0x60, 0xbe,
  0xe4, 0x90, 0x1e, 0x3e, 0x2e, 0x88, 0xb6, 0x3d, 0xb4, 0x36, 0x12, 0xbd,
  0x16, 0x1e, 0xa2, 0xbe, 0x85, 0xfc, 0x33, 0xbe, 0xa6, 0xe5, 0xd8, 0x3d,
  0x9d, 0x5d, 0xdc, 0x3c, 0xc1, 0x98, 0x39, 0xbe, 0xeb, 0xbb, 0x1b, 0x3e,
  0xeb, 0x0a, 0x85, 0xbd, 0x08, 0x05, 0x10, 0xbe, 0x3a, 0x0f, 0xe3, 0xbe,
  0x39, 0xec, 0xb1, 0xbe, 0x93, 0xd3, 0x11, 0xbd, 0xd1, 0xb7, 0x79, 0x3c,
  0x34, 0x25, 0x2f, 0xbe, 0x93, 0x0c, 0xec, 0x3d, 0x3d, 0x50, 0xb8, 0x3d,
  0x9c, 0xba, 0xea, 0xbc, 0x91, 0xde, 0xf2, 0xbd, 0xd6, 0xad, 0xa4, 0xbe,
  0xcc, 0x20, 0xe5, 0xbd, 0x46, 0x21, 0x8e, 0xbe, 0x5a, 0x83, 0x22, 0xbe,
  0x59, 0x40, 0x06, 0xbe, 0x25, 0x29, 0x9f, 0x3e, 0xf3, 0xba, 0xf7, 0x3c,
  0xea, 0xe2, 0x16, 0xbe, 0x80, 0xd0, 0xc5, 0xbd, 0x74, 0xe8, 0xbe, 0x3d,
  0xb0, 0x21, 0xe0, 0x3d, 0xef, 0xda, 0x3d, 0xbe, 0x29, 0x12, 0x15, 0xbe,
  0x05, 0xd1, 0xba, 0x3b, 0xd1, 0x7d, 0x83, 0x3e, 0x28, 0x8d, 0x7b, 0x3e,
  0x94, 0xf2, 0x8d, 0xbe, 0x1e, 0x90, 0xc8, 0xbd, 0xb8, 0x6c, 0xa8, 0x3c,
  0x26, 0x6f, 0xcf, 0xbe, 0x8b, 0xc0, 0x98, 0xbd, 0xee, 0x22, 0xc4, 0xbb,
  0x12, 0x4b, 0xa8, 0xbd, 0x25, 0xa7, 0xae, 0x3d, 0x3c, 0x26, 0x31, 0xbe,
  0xc5, 0xa4, 0xd2, 0xbe, 0x38, 0xbd, 0xb7, 0x3c, 0xd2, 0x12, 0x85, 0xbe,
  0x39, 0x69, 0xac, 0xbc, 0x90, 0x1d, 0x1f, 0xbf, 0xbe, 0xce, 0x1b, 0xbd,
  0x23, 0x1d, 0x7e, 0xbe, 0x5b, 0x85, 0x6a, 0x3e, 0x7e, 0x9b, 0x1d, 0xbf,
  0xea, 0xfb, 0xea, 0x3d, 0xe6, 0xcc, 0x6c, 0x3e, 0xfa, 0x96, 0x8a, 0x3d,
  0xf3, 0xad, 0x2e, 0x3e, 0x3e, 0xd5, 0xa6, 0xbe, 0xbf, 0x0b, 0x9f, 0xbd,
  0xe5, 0xd7, 0xba, 0x3d, 0xea, 0x0a, 0xe4, 0xbd, 0xf5, 0x65, 0x08, 0x3e,
  0xeb, 0x5a, 0x4a, 0x3d, 0x5d, 0x90, 0x12, 0xbd, 0x30, 0x1d, 0x91, 0x3d,
  0x24, 0x90, 0x8b, 0x3e, 0xda, 0xb2, 0xf6, 0xbe, 0x1e, 0x0e, 0xc6, 0x3e,
  0x8f, 0x67, 0x07, 0xbf, 0x81, 0x93, 0x9e, 0x3e, 0x21, 0x48, 0x28, 0xbe,
  0x10, 0x5b, 0x52, 0xbd, 0xe2, 0x74, 0x8e, 0xbe, 0x8d, 0x3b, 0x30, 0xbf,
  0xa6, 0xa8, 0x5a, 0xbe, 0xdf, 0xe1, 0x9c, 0xbd, 0x2b, 0x62, 0x57, 0xbe,
  0xd3, 0x92, 0x88, 0x3e, 0x94, 0x5a, 0x10, 0xbe, 0xf3, 0xdf, 0x0e, 0xbd,
  0x13, 0x7b, 0x21, 0xbe, 0xaa, 0x86, 0x99, 0xbe, 0x82, 0x20, 0x8e, 0x3d,
  0xe4, 0x8a, 0x10, 0xbd, 0x4e, 0x08, 0xcf, 0xbb, 0xc1, 0x67, 0x1a, 0x3e,
  0x63, 0x5b, 0x89, 0xbd, 0xdb, 0x20, 0xae, 0xbd, 0xc3, 0xfb, 0x08, 0xbd,
  0x2f, 0x9d, 0x3a, 0xbd, 0xd6, 0x12, 0x6f, 0xbc, 0x4d, 0x7c, 0x8a, 0xbd,
  0x9b, 0x03, 0xc5, 0x3e, 0x26, 0xd0, 0x00, 0xbe, 0xd0, 0x41, 0x8f, 0x3e,
  0xab, 0x6c, 0x45, 0xbd, 0xe5, 0x17, 0xf3, 0xbc, 0x85, 0x03, 0xf7, 0x3d,
  0x47, 0x6c, 0x3e, 0x3e, 0xc4, 0xa3, 0x13, 0xbd, 0x2c, 0x12, 0x42, 0xbc,
  0x30, 0xc6, 0xb6, 0xbd, 0x8b, 0xef, 0xbc, 0x3c, 0xc6, 0xb8, 0xaa, 0xbb,
  0xad, 0xc6, 0x0c, 0x3e, 0xf1, 0x25, 0x5e, 0xbe, 0x79, 0x44, 0xc1, 0x3d,
  0xa3, 0x69, 0xfb, 0xbc, 0x6b, 0x68, 0x07, 0xbd, 0xe1, 0x93, 0xf9, 0x3c,
  0x6c, 0x41, 0x99, 0x3d, 0x18, 0xbb, 0x34, 0xbd, 0x3b, 0x0e, 0x06, 0x3d,
  0xa0, 0xfb, 0x6a, 0x3d, 0xe3, 0xf3, 0xb7, 0xbd, 0x62, 0x80, 0x6e, 0x3a,
  0xa6, 0xd8, 0x69, 0xbd, 0x21, 0xc9, 0x54, 0xbd, 0x7e, 0xdf, 0x91, 0x3d,
  0xe8, 0x1e, 0x23, 0xbb, 0x9c, 0x62, 0x42, 0x3e, 0x8d, 0x4d, 0x28, 0xbc,
  0x2d, 0x23, 0x2f, 0xbd, 0xd0, 0xff, 0xbd, 0xbb, 0x6c, 0x0b, 0x85, 0xbd,
  0xd9, 0xd6, 0x8b, 0xbe, 0x59, 0xaf, 0x47, 0xbd, 0xc9, 0x78, 0x38, 0xbd,
  0x3a, 0x7c, 0x9e, 0xbd, 0xb1, 0x74, 0x58, 0xbd, 0xc3, 0x33, 0x7e, 0xbe,
  0xb9, 0x35, 0x39, 0xbe, 0xa7, 0xd6, 0xcc, 0xbe, 0x2d, 0x19, 0x37, 0xbe,
  0x70, 0x31, 0x79, 0x3a, 0x8e, 0x97, 0x95, 0xbc, 0xf0, 0x44, 0x57, 0xbd,
  0xf2, 0x3f, 0xe7, 0x3e, 0x33, 0x0c, 0xb9, 0xbe, 0x45, 0x39, 0x87, 0x3b,
  0x24, 0x9e, 0x99, 0xbe, 0xd0, 0x4e, 0x8a, 0x3d, 0xe2, 0xcd, 0xd8, 0xb7,
  0x34, 0x60, 0xa2, 0xbd, 0x3d, 0x80, 0xcd, 0x3e, 0x51, 0xfa, 0x3c, 0xbe,
  0x27, 0x80, 0x4b, 0xbf, 0xd1, 0x08, 0x87, 0x3b, 0x42, 0xa4, 0x79, 0xbe,
  0xc6, 0x26, 0x2a, 0x3e, 0x2b, 0x10, 0x25, 0xbe, 0x98, 0xc6, 0x22, 0xbe,
  0xc4, 0xa1, 0x8a, 0xbd, 0xd8, 0x49, 0xc1, 0xbe, 0x56, 0x66, 0xa3, 0xbe,
  0xff, 0xf8, 0x25, 0x3c, 0x5f, 0x8a, 0x0c, 0x3e, 0x79, 0xf9, 0x98, 0xbc,
  0x77, 0x80, 0x1a, 0xbe, 0x00, 0xf8, 0x34, 0xbd, 0x81, 0xa7, 0x7d, 0xbd,
  0xd2, 0xd1, 0x8f, 0xbe, 0x50, 0x09, 0x18, 0x3e, 0xda, 0x95, 0xdd, 0x3d,
  0xe6, 0x9a, 0x53, 0x3c, 0xeb, 0x95, 0x72, 0xbe, 0x18, 0x2e, 0x31, 0xbd,
  0x33, 0x8c, 0xbc, 0xbc, 0x19, 0xd9, 0x87, 0xbe, 0x38, 0xff, 0xca, 0xbe,
  0xc4, 0x16, 0xab, 0x3e, 0x05, 0xe1, 0x6f, 0xbd, 0x65, 0x29, 0x59, 0xbd,
  0x65, 0xc0, 0xdb, 0x3e, 0x4e, 0x04, 0x20, 0x3d, 0x26, 0x92, 0x56, 0x3d,
  0x6e, 0x27, 0x95, 0xbe, 0xe9, 0xd8, 0x35, 0xbc, 0x10, 0x4b, 0x0a, 0xbe,
  0x18, 0x72, 0xf8, 0x3c, 0x9f, 0x49, 0x07, 0xbc, 0xc0, 0x49, 0x39, 0xbe,
  0x25, 0xdc, 0x49, 0xbe, 0x82, 0x96, 0xab, 0xbd, 0xcf, 0x7a, 0x0f, 0xbe,
  0xb7, 0x7b, 0x03, 0x3f, 0x1b, 0x70, 0x68, 0xbe, 0x56, 0x86, 0x08, 0xbe,
  0x52, 0x92, 0xa9, 0x3c, 0xe2, 0xdd, 0xff, 0xff, 0x10, 0x00, 0x00, 0x00,
  0x0a, 0x00, 0x00, 0x00, 0x1c, 0x00, 0x00, 0x00, 0x38, 0x00, 0x00, 0x00,
  0x04, 0x00, 0x00, 0x00, 0x10, 0x00, 0x00, 0x00, 0x04, 0x00, 0x00, 0x00,
  0x01, 0x00, 0x00, 0x00, 0x08, 0x00, 0x00, 0x00, 0x1a, 0x00, 0x00, 0x00,
  0x73, 0x65, 0x71, 0x75, 0x65, 0x6e, 0x74, 0x69, 0x61, 0x6c, 0x2f, 0x63,
  0x6f, 0x6e, 0x76, 0x32, 0x64, 0x5f, 0x31, 0x2f, 0x43, 0x6f, 0x6e, 0x76,
  0x32, 0x44, 0x00, 0x00, 0x58, 0xdd, 0xff, 0xff, 0x62, 0xde, 0xff, 0xff,
  0x04, 0x00, 0x00, 0x00, 0x80, 0x01, 0x00, 0x00, 0x42, 0x66, 0x11, 0x3c,
  0xc0, 0xca, 0xe9, 0xbd, 0xcc, 0x82, 0x3e, 0xbd, 0x0b, 0x5a, 0x37, 0xbe,
  0x85, 0xda, 0xa3, 0xbe, 0x13, 0xc2, 0xad, 0xbe, 0x8c, 0x60, 0x31, 0x3e,
  0x94, 0x7b, 0xca, 0x3e, 0xb4, 0x70, 0x8c, 0x3e, 0xc0, 0xfe, 0x8e, 0x3d,
  0xed, 0x7d, 0x86, 0x3d, 0x18, 0x2e, 0xf9, 0x3d, 0x60, 0x40, 0x8b, 0x3d,
  0x3f, 0x47, 0x4a, 0x3e, 0xa8, 0xc3, 0xbb, 0xbe, 0x70, 0xf4, 0xec, 0xbb,
  0xae, 0xe7, 0xb4, 0xbc, 0xa0, 0xa3, 0x75, 0x3d, 0xca, 0x18, 0xc8, 0x3e,
  0xbe, 0x70, 0xee, 0x3d, 0xed, 0xf1, 0x9c, 0xbd, 0x25, 0xe0, 0xdf, 0x3d,
  0x0a, 0x49, 0x41, 0xbd, 0xe7, 0xa2, 0xbf, 0x3c, 0x17, 0x5f, 0x00, 0xbe,
  0x93, 0x43, 0x42, 0xbd, 0xd0, 0x8c, 0xe2, 0xbd, 0x6f, 0xea, 0x6e, 0x3b,
  0xe9, 0x89, 0xad, 0x3d, 0x9d, 0x4d, 0x77, 0x3c, 0xc7, 0x44, 0xbb, 0xbd,
  0xe9, 0x69, 0x9d, 0xbc, 0x92, 0xb5, 0x46, 0xbd, 0x35, 0xf1, 0xeb, 0x3c,
  0x19, 0x0a, 0xb9, 0x3d, 0x1e, 0xf9, 0x6f, 0xbd, 0x43, 0xa2, 0x9f, 0x3e,
  0xc8, 0xfc, 0x1f, 0xbe, 0x47, 0xa6, 0x09, 0x3e, 0xba, 0x0d, 0xa0, 0x3e,
  0x99, 0x63, 0x5c, 0x3e, 0xca, 0x81, 0x9b, 0xbd, 0xca, 0xba, 0xc5, 0xbd,
  0xa0, 0x77, 0xc4, 0xbd, 0xfb, 0x01, 0x96, 0x3d, 0xcd, 0xff, 0xa7, 0xbe,
  0x25, 0x85, 0x53, 0xbd, 0x5a, 0x2a, 0x0e, 0x3e, 0xe4, 0x68, 0x96, 0x3d,
  0x77, 0x05, 0x4d, 0xbd, 0xaf, 0x37, 0x0f, 0x3e, 0x22, 0xb5, 0x74, 0x3e,
  0xc1, 0x7a, 0xd5, 0x3e, 0xf5, 0xa5, 0x2b, 0x3e, 0x78, 0x2b, 0x51, 0xbe,
  0x36, 0x81, 0xa8, 0xbd, 0x3d, 0x78, 0xa5, 0x3d, 0x03, 0xe2, 0x61, 0xbd,
  0x71, 0x52, 0x9b, 0xbe, 0x26, 0xb9, 0xb9, 0xbe, 0x46, 0x08, 0x12, 0x3e,
  0xd5, 0xc2, 0x05, 0x3e, 0x5f, 0x2c, 0x2a, 0xbd, 0xd6, 0xaf, 0x07, 0x3d,
  0x2a, 0xe8, 0xab, 0x3e, 0x23, 0x29, 0x8b, 0x3e, 0xbf, 0x98, 0xf5, 0x3c,
  0xc4, 0xc0, 0xda, 0xbd, 0xc1, 0x88, 0xc0, 0x3d, 0x3b, 0x67, 0x07, 0xbd,
  0xff, 0x51, 0x78, 0xbd, 0xcd, 0x8d, 0x0b, 0xbe, 0xe9, 0xf4, 0x0e, 0xbe,
  0x80, 0xdf, 0x20, 0xbe, 0xe5, 0x19, 0x60, 0x3e, 0xad, 0xb4, 0x18, 0xbe,
  0xef, 0x8f, 0xfc, 0xbd, 0x57, 0x95, 0x9f, 0x3d, 0xad, 0x51, 0xf2, 0xbc,
  0x0d, 0x1a, 0x19, 0x3e, 0x5b, 0xd0, 0x9e, 0x3d, 0x9e, 0xbc, 0x8c, 0x3e,
  0xfc, 0xef, 0x86, 0x3e, 0x93, 0xb3, 0xa2, 0xbd, 0x43, 0x7b, 0x0e, 0x3d,
  0xde, 0x74, 0x87, 0xbd, 0x11, 0xff, 0x12, 0x3e, 0x2c, 0xd4, 0xe3, 0x3b,
  0x1b, 0x8d, 0x49, 0x3b, 0x14, 0x52, 0x14, 0xbc, 0xfc, 0x73, 0x97, 0x3c,
  0xe0, 0x16, 0x11, 0xb9, 0xcb, 0xf7, 0xbf, 0x3c, 0x62, 0xb4, 0xcb, 0x3e,
  0xaa, 0xb4, 0x4c, 0x3a, 0x6d, 0x5d, 0x6c, 0x3d, 0xba, 0xdf, 0xff, 0xff,
  0x10, 0x00, 0x00, 0x00, 0x09, 0x00, 0x00, 0x00, 0x1c, 0x00, 0x00, 0x00,
  0x38, 0x00, 0x00, 0x00, 0x04, 0x00, 0x00, 0x00, 0x08, 0x00, 0x00, 0x00,
  0x04, 0x00, 0x00, 0x00, 0x03, 0x00, 0x00, 0x00, 0x01, 0x00, 0x00, 0x00,
  0x18, 0x00, 0x00, 0x00, 0x73, 0x65, 0x71, 0x75, 0x65, 0x6e, 0x74, 0x69,
  0x61, 0x6c, 0x2f, 0x63, 0x6f, 0x6e, 0x76, 0x32, 0x64, 0x2f, 0x43, 0x6f,
  0x6e, 0x76, 0x32, 0x44, 0x00, 0x00, 0x00, 0x00, 0x30, 0xdf, 0xff, 0xff,
  0x3a, 0xe0, 0xff, 0xff, 0x04, 0x00, 0x00, 0x00, 0x00, 0x01, 0x00, 0x00,
  0x28, 0x81, 0x36, 0xbc, 0xb0, 0x22, 0x67, 0x3e, 0x0c, 0x6f, 0xa8, 0x3c,
  0x5a, 0xe3, 0x96, 0x3e, 0x3d, 0x31, 0x3a, 0x3e, 0xca, 0x23, 0x0d, 0x3e,
  0xe5, 0x55, 0xac, 0x3e, 0xf9, 0x5d, 0x1b, 0xbf, 0x0f, 0xb2, 0x8c, 0x3e,
  0xd8, 0xeb, 0x7a, 0x3d, 0xf9, 0xd4, 0x4d, 0x3c, 0xb7, 0x35, 0x60, 0x3c,
  0x16, 0xd8, 0xd7, 0xbb, 0x0f, 0x43, 0x4a, 0x3e, 0x71, 0x25, 0x2b, 0xbe,
  0x5e, 0x6a, 0xa7, 0xbe, 0xc9, 0x1c, 0x0e, 0x3c, 0x67, 0xef, 0x88, 0x3e,
  0x2e, 0xeb, 0xea, 0x3d, 0x98, 0x19, 0xb9, 0x3e, 0x01, 0x97, 0xa7, 0x3e,
  0xd7, 0x2b, 0x2a, 0x3e, 0xd3, 0x33, 0xc0, 0x3e, 0xcf, 0x3f, 0x06, 0xbf,
  0xcb, 0x32, 0x50, 0x3e, 0x7f, 0xb4, 0x02, 0x3e, 0x9e, 0x7f, 0xd2, 0xbe,
  0xee, 0x1c, 0x2c, 0x3d, 0x70, 0x7a, 0x4f, 0xbd, 0x1d, 0x85, 0x90, 0x3e,
  0x95, 0x6a, 0x17, 0xbe, 0xf4, 0xcb, 0x89, 0xbe, 0xe3, 0x6a, 0xf1, 0xbd,
  0x6a, 0x71, 0x7c, 0x3e, 0x7a, 0xff, 0x23, 0x3e, 0xe7, 0x5d, 0xa4, 0x3e,
  0x2d, 0xbf, 0xbd, 0x3e, 0x84, 0xe7, 0x3b, 0x3e, 0x2e, 0x19, 0x7b, 0x3e,
  0x6a, 0xd7, 0x14, 0xbd, 0xde, 0xa2, 0x23, 0x3e, 0x24, 0x9d, 0xbc, 0x3d,
  0x00, 0xe0, 0x61, 0x3e, 0xf2, 0xba, 0x85, 0xbe, 0xfc, 0x0e, 0xf5, 0xbd,
  0x90, 0x61, 0xaa, 0x3e, 0x69, 0x0e, 0xde, 0xbd, 0x3e, 0xe1, 0x74, 0xbe,
  0xff, 0x59, 0xff, 0xbb, 0x5a, 0x4c, 0x9c, 0x3e, 0xf0, 0xb6, 0x81, 0x3c,
  0xc4, 0x2f, 0x92, 0x3e, 0x1f, 0x69, 0x92, 0x3e, 0x50, 0x61, 0x5c, 0x3e,
  0x80, 0x3e, 0x67, 0x3e, 0x87, 0xee, 0x18, 0x3d, 0xeb, 0x8f, 0x19, 0x3e,
  0xbf, 0x9a, 0x32, 0x3c, 0x2f, 0xe4, 0x01, 0x3e, 0x32, 0xc0, 0x6c, 0x3d,
  0xa1, 0x19, 0x82, 0xbd, 0x7c, 0xd1, 0x69, 0x3e, 0x21, 0x76, 0xa9, 0xbd,
  0xc0, 0x92, 0x96, 0xbe, 0x12, 0xe1, 0xff, 0xff, 0x10, 0x00, 0x00, 0x00,
  0x08, 0x00, 0x00, 0x00, 0x14, 0x00, 0x00, 0x00, 0x30, 0x00, 0x00, 0x00,
  0x02, 0x00, 0x00, 0x00, 0x04, 0x00, 0x00, 0x00, 0x10, 0x00, 0x00, 0x00,
  0x19, 0x00, 0x00, 0x00, 0x73, 0x65, 0x71, 0x75, 0x65, 0x6e, 0x74, 0x69,
  0x61, 0x6c, 0x2f, 0x64, 0x65, 0x6e, 0x73, 0x65, 0x5f, 0x31, 0x2f, 0x4d,
  0x61, 0x74, 0x4d, 0x75, 0x6c, 0x00, 0x00, 0x00, 0x80, 0xe0, 0xff, 0xff,
  0x8a, 0xe1, 0xff, 0xff, 0x04, 0x00, 0x00, 0x00, 0x00, 0x1c, 0x00, 0x00,
  0x86, 0x0c, 0xb9, 0x3d, 0x07, 0xa3, 0x1d, 0xbc, 0xa9, 0x2f, 0x8c, 0x3d,
  0xad, 0xfc, 0x31, 0x3e, 0xa9, 0xb0, 0x17, 0x3e, 0xaf, 0xfa, 0x8e, 0xbd,
  0xe3, 0x78, 0xb1, 0x3d, 0x96, 0x37, 0x81, 0x3e, 0x81, 0x83, 0x73, 0x3e,
  0xb7, 0x53, 0x69, 0xbe, 0xea, 0xd8, 0x6f, 0xbd, 0xa8, 0x42, 0xc6, 0x3d,
  0x30, 0x34, 0xd6, 0xbb, 0xa3, 0x8b, 0x08, 0x3c, 0x03, 0xa8, 0xa9, 0x3b,
  0x50, 0x4d, 0x54, 0x3d, 0xcd, 0xb2, 0x3e, 0xbc, 0x7b, 0x9e, 0x42, 0x3d,
  0x38, 0x7c, 0x9e, 0xbc, 0x03, 0xeb, 0xce, 0x3d, 0x1a, 0xad, 0x5b, 0xbe,
  0xf8, 0x8e, 0x16, 0xbe, 0x81, 0x23, 0x8e, 0x3d, 0x95, 0x4e, 0xd7, 0xbd,
  0x2f, 0xaa, 0x72, 0x3e, 0x21, 0xb1, 0x15, 0xbd, 0x84, 0x65, 0x88, 0xbd,
  0x1f, 0x8e, 0x23, 0x3e, 0xab, 0x4e, 0x85, 0x3d, 0x1a, 0x1a, 0x30, 0xbc,
  0x70, 0xc8, 0xba, 0xbc, 0x0e, 0x5a, 0x9c, 0xbd, 0xe5, 0xa6, 0x0b, 0xbd,
  0x3a, 0x73, 0x1f, 0x3c, 0xc3, 0x40, 0x05, 0xbd, 0xaa, 0x7a, 0x65, 0xbe,
  0xe9, 0x31, 0x2e, 0xbf, 0x94, 0x1a, 0xc2, 0xbe, 0xa8, 0x8c, 0x2b, 0x3d,
  0x03, 0x9b, 0xc4, 0xbe, 0x10, 0x0e, 0x12, 0xbd, 0x71, 0xb4, 0x16, 0x3d,
  0xba, 0xbb, 0xdc, 0xbd, 0xce, 0x32, 0x20, 0xbc, 0x97, 0xb1, 0x8a, 0x3d,
  0x94, 0x27, 0x86, 0xba, 0x2a, 0x3d, 0x42, 0xbe, 0xc7, 0xcc, 0xcd, 0x3b,
  0x7e, 0x2e, 0xfc, 0xbc, 0xa2, 0xfc, 0x38, 0xbd, 0xec, 0x65, 0x19, 0x3b,
  0xf0, 0x56, 0x3a, 0xbe, 0x2e, 0xf9, 0x43, 0xbf, 0x75, 0xfb, 0x38, 0xbe,
  0x6e, 0xc1, 0xb5, 0xbc, 0x96, 0xfa, 0xad, 0xbe, 0xa1, 0xf5, 0x57, 0xbe,
  0x46, 0x22, 0x57, 0xbe, 0x22, 0x11, 0xba, 0x3c, 0xa6, 0x32, 0xe8, 0xbd,
  0x0d, 0x3c, 0xc8, 0xbd, 0x0b, 0xad, 0x15, 0xbc, 0x1d, 0x65, 0x06, 0xbc,
  0x38, 0x6c, 0x5e, 0x3d, 0xa0, 0x9a, 0x4a, 0xbd, 0x05, 0xa7, 0x24, 0x3d,
  0x54, 0x47, 0x90, 0xbc, 0xbf, 0x6d, 0xa4, 0xbd, 0x5e, 0x80, 0xbb, 0xbe,
  0xba, 0x1b, 0x26, 0xbe, 0x5a, 0x11, 0xb5, 0xbd, 0x19, 0x54, 0x6a, 0xbe,
  0x28, 0xa4, 0x3d, 0xbe, 0x15, 0x33, 0x9e, 0x3c, 0x66, 0xf4, 0xfd, 0xbc,
  0x52, 0x9c, 0x16, 0xbe, 0xb9, 0x71, 0x36, 0xbe, 0x4b, 0x00, 0x65, 0x3b,
  0x67, 0x37, 0x15, 0x3c, 0x0b, 0xc1, 0xf5, 0xbc, 0xbe, 0xfa, 0x29, 0xbc,
  0x9f, 0x66, 0x15, 0xbe, 0x9e, 0x79, 0xa8, 0xbc, 0x9e, 0x4b, 0xf1, 0xbd,
  0x37, 0xe2, 0x05, 0xbf, 0xa4, 0x6e, 0xe5, 0xbd, 0xce, 0x4c, 0xe6, 0xbc,
  0xfe, 0xe3, 0x40, 0xbe, 0x11, 0x78, 0x1e, 0xbd, 0xaa, 0x5a, 0x3d, 0xbc,
  0xdb, 0x6d, 0xf8, 0xbd, 0x72, 0x7a, 0x42, 0xbe, 0xeb, 0x91, 0x96, 0xbd,
  0x1a, 0x49, 0x17, 0xbc, 0x0a, 0x0f, 0x34, 0xbc, 0xc6, 0x11, 0x81, 0xbd,
  0x1b, 0xec, 0xe7, 0xbc, 0xa9, 0xf8, 0x3e, 0xbe, 0xed, 0xd7, 0x81, 0xbc,
  0x51, 0x47, 0xb5, 0xbc, 0x65, 0x42, 0xef, 0xbd, 0xe6, 0x6d, 0x90, 0xbd,
  0x00, 0x72, 0xba, 0xbd, 0x97, 0x63, 0xa2, 0x3a, 0x7a, 0x5d, 0x22, 0xbd,
  0x20, 0xbf, 0x22, 0xbc, 0xd9, 0xe7, 0x8b, 0x3a, 0x36, 0xc8, 0x36, 0x3c,
  0xfc, 0xd4, 0xf4, 0x39, 0xaf, 0x50, 0xac, 0xbb, 0x35, 0x96, 0xc6, 0xbd,
  0x43, 0x0c, 0xe9, 0xbb, 0x80, 0x00, 0xce, 0xbd, 0xff, 0x4f, 0xc6, 0xbe,
  0x5b, 0x27, 0x32, 0xbe, 0xef, 0xcc, 0x0d, 0xbe, 0xb2, 0xda, 0x24, 0xbd,
  0x71, 0x2b, 0xcf, 0xbe, 0xa7, 0x07, 0x17, 0x3d, 0xd3, 0xab, 0x34, 0x3e,
  0x71, 0xf6, 0xcc, 0xbe, 0x75, 0x08, 0xc2, 0xbe, 0xa3, 0x2a, 0x45, 0x3e,
  0x79, 0x1a, 0x0b, 0xbe, 0xa6, 0x53, 0x05, 0xbe, 0x08, 0xe2, 0x1d, 0xbf,
  0x6e, 0xe0, 0xb6, 0xbe, 0x66, 0x1e, 0xfa, 0x3c, 0xb2, 0x6d, 0x6e, 0xbd,
  0x59, 0xb3, 0x0c, 0x3e, 0x36, 0xab, 0x8c, 0xbd, 0x29, 0xbc, 0xf0, 0x3d,
  0xb1, 0xb2, 0x3b, 0x3c, 0xe5, 0xec, 0x0f, 0xbe, 0x34, 0x8e, 0xbc, 0x3d,
  0x56, 0x72, 0x7e, 0x3e, 0x46, 0xcb, 0x41, 0xbd, 0xd5, 0x0d, 0xe8, 0xbe,
  0x21, 0x5f, 0xcc, 0x3d, 0x71, 0xb5, 0xc3, 0xbd, 0x9e, 0x8e, 0x59, 0xbe,
  0x39, 0x6e, 0x58, 0xbf, 0xe2, 0x4d, 0x21, 0xbe, 0x4b, 0xca, 0x43, 0x3e,
  0x45, 0x94, 0xc3, 0xbd, 0x47, 0x24, 0x02, 0x3e, 0x6c, 0x08, 0x12, 0xbe,
  0xb5, 0xa4, 0x61, 0x3e, 0x9b, 0xae, 0xbd, 0x3d, 0xa3, 0xc3, 0x87, 0xbe,
  0xdf, 0xb9, 0xb7, 0x3e, 0xf4, 0x29, 0x26, 0xbe, 0x81, 0x41, 0x1d, 0x3e,
  0x39, 0x39, 0xe5, 0xbe, 0x22, 0xaa, 0x4c, 0x3e, 0x48, 0x9d, 0x32, 0x3e,
  0xc7, 0x29, 0x1b, 0x3e, 0x75, 0xa5, 0x52, 0xbf, 0x24, 0xff, 0xae, 0x3e,
  0x4d, 0x25, 0x9b, 0x3d, 0x2f, 0x1e, 0x95, 0xbc, 0x18, 0x53, 0x68, 0x3c,
  0x73, 0x46, 0x35, 0xbd, 0x95, 0x00, 0x24, 0xbc, 0xd0, 0x44, 0x4f, 0xbe,
  0x86, 0xd4, 0x19, 0xbe, 0xe4, 0xcf, 0xad, 0x3e, 0x47, 0xa2, 0x80, 0x3c,
  0xbc, 0x73, 0xb4, 0xbd, 0x02, 0xeb, 0xad, 0xbe, 0x63, 0xea, 0x07, 0x3c,
  0x0d, 0xe0, 0xec, 0x3c, 0x42, 0xbf, 0x79, 0xbd, 0xc3, 0x06, 0x25, 0xbf,
  0xb9, 0x12, 0x15, 0x3e, 0x9c, 0xf9, 0x8f, 0x3e, 0x54, 0x6d, 0xda, 0x3b,
  0x5d, 0xa3, 0xa5, 0x3d, 0xef, 0x0a, 0x19, 0x3d, 0xa9, 0x06, 0xc8, 0x3d,
  0x82, 0x5f, 0xdf, 0xbd, 0x6f, 0xae, 0xeb, 0xbd, 0xf1, 0x71, 0x12, 0x3e,
  0x7b, 0x99, 0x74, 0x3e, 0x30, 0xa7, 0x1e, 0x3d, 0xec, 0x9b, 0xc5, 0x3e,
  0xd3, 0xb0, 0xa5, 0xbd, 0x82, 0x23, 0x57, 0x3e, 0x14, 0x78, 0x89, 0x3d,
  0xb1, 0x91, 0xbe, 0xbe, 0x16, 0x47, 0x17, 0x3e, 0xd8, 0x14, 0x6e, 0x3e,
  0x7e, 0x81, 0x64, 0x3b, 0xbd, 0x35, 0x4c, 0xbd, 0xde, 0x47, 0x49, 0x3e,
  0x1f, 0x06, 0x0b, 0x3e, 0x11, 0xef, 0xe8, 0xbc, 0x5a, 0xb9, 0xa8, 0xbe,
  0x10, 0xc8, 0xea, 0xbb, 0x93, 0x2a, 0xa5, 0x3c, 0x0a, 0x65, 0x28, 0xbd,
  0x05, 0x26, 0x1f, 0x3f, 0xe7, 0x04, 0xd3, 0x3d, 0xbd, 0x7d, 0x0c, 0x3d,
  0x57, 0xe4, 0x40, 0x3e, 0x6d, 0x98, 0x50, 0xbe, 0x32, 0x54, 0xf2, 0x3d,
  0xc0, 0xc2, 0x60, 0x3e, 0x8c, 0xe2, 0x83, 0xbd, 0xc4, 0xc3, 0x99, 0x3d,
  0xf7, 0x21, 0x7f, 0x3e, 0x50, 0x3d, 0x02, 0x3e, 0x47, 0x05, 0x34, 0x3d,
  0x0a, 0xfe, 0x4a, 0x3e, 0x74, 0xec, 0x31, 0x3d, 0x93, 0x17, 0x5d, 0x3d,
  0x0d, 0x4c, 0xfb, 0x3d, 0xa6, 0x29, 0xdc, 0x3e, 0x54, 0x46, 0x76, 0xbe,
  0x57, 0xfc, 0x92, 0xbd, 0x22, 0xc5, 0x11, 0xbd, 0xa9, 0x65, 0x10, 0xbe,
  0x2e, 0xa7, 0xb6, 0x3e, 0x9e, 0x61, 0x0a, 0xbe, 0xef, 0x2f, 0x94, 0xbe,
  0xeb, 0x19, 0x0d, 0xbd, 0x34, 0x1b, 0xa5, 0xbc, 0xcf, 0xb7, 0xd3, 0xbe,
  0xc2, 0xc0, 0xd8, 0xbe, 0x69, 0xb3, 0x2a, 0x3e, 0xe4, 0x56, 0x0c, 0xbf,
  0x27, 0x48, 0x8c, 0xbe, 0xb0, 0x9f, 0x34, 0xbe, 0xe0, 0x94, 0x97, 0xbe,
  0x15, 0x25, 0x21, 0x3e, 0x62, 0xf5, 0x05, 0xbe, 0x30, 0x71, 0xec, 0xbe,
  0x66, 0x39, 0xee, 0x3c, 0x40, 0x09, 0x05, 0x3d, 0x74, 0x5d, 0x69, 0x3d,
  0xb5, 0xc1, 0x9a, 0xbd, 0xdb, 0xbc, 0x2b, 0xbd, 0xd8, 0xd9, 0x8b, 0xbc,
  0x65, 0x20, 0xd0, 0x3c, 0x43, 0xef, 0xda, 0x3d, 0x11, 0xd2, 0xad, 0x3d,
  0x8e, 0x00, 0xa9, 0xbe, 0x35, 0x75, 0x82, 0xbe, 0xd2, 0x30, 0x67, 0xbd,
  0x85, 0xc4, 0xaa, 0xbe, 0x4f, 0x6a, 0xc9, 0x3c, 0x22, 0x8f, 0x38, 0x3e,
  0x8d, 0x89, 0xe7, 0xbe, 0xc3, 0xda, 0x36, 0x3d, 0x84, 0xe7, 0x58, 0x3d,
  0x96, 0x5c, 0x81, 0xbe, 0xfd, 0xd1, 0x49, 0x3d, 0x15, 0xef, 0x92, 0xbd,
  0x2c, 0xda, 0x3f, 0xbc, 0x24, 0x56, 0x77, 0x3e, 0x5f, 0x32, 0x8a, 0x3e,
  0x27, 0x26, 0x59, 0x3e, 0x3f, 0x31, 0x55, 0xbe, 0xe0, 0x06, 0x7e, 0xbd,
  0x77, 0xfd, 0x8a, 0x3d, 0x91, 0x11, 0x8a, 0xbe, 0xac, 0x40, 0xcd, 0x3d,
  0xaf, 0xbb, 0xab, 0x3e, 0x54, 0x09, 0xc0, 0xbd, 0xc5, 0x61, 0x26, 0x3c,
  0xf0, 0x5e, 0x81, 0xbe, 0xe4, 0x77, 0x81, 0x3d, 0x17, 0x09, 0x84, 0x3d,
  0x2b, 0x52, 0x99, 0xbd, 0x70, 0x93, 0x98, 0x3d, 0x02, 0x25, 0x75, 0x3e,
  0xe1, 0x00, 0xdc, 0x3c, 0x7d, 0x71, 0x43, 0x3d, 0x6a, 0x71, 0x1b, 0xbe,
  0xa0, 0x24, 0x8e, 0x3c, 0xd0, 0xd4, 0x36, 0x3e, 0x0b, 0x55, 0x9d, 0xbd,
  0xdd, 0x89, 0xe9, 0x3d, 0xf2, 0xb8, 0xee, 0xbc, 0x8a, 0xab, 0xfe, 0xbb,
  0x78, 0x04, 0x20, 0x3d, 0xc3, 0x92, 0x24, 0xbe, 0x71, 0x59, 0xc1, 0x3d,
  0xb9, 0x9d, 0xe1, 0xbd, 0x84, 0xc6, 0xa3, 0xbc, 0xb8, 0xe9, 0xf4, 0xbd,
  0xf3, 0x4e, 0x00, 0xbc, 0x0f, 0xef, 0x88, 0x3e, 0x9e, 0x65, 0xf0, 0x3d,
  0xbe, 0x88, 0xf2, 0xbd, 0xbd, 0x17, 0xc2, 0x3d, 0x1c, 0x44, 0x1e, 0xbd,
  0xbb, 0x72, 0x60, 0xbe, 0x49, 0x68, 0x20, 0x3e, 0x27, 0x1b, 0xfa, 0xbc,
  0x75, 0x7e, 0x5a, 0xbe, 0x0f, 0x78, 0xf0, 0x3d, 0xb4, 0xca, 0x0c, 0xbe,
  0xa7, 0x1c, 0x14, 0xbd, 0xe6, 0x2a, 0xca, 0xbd, 0x86, 0x34, 0xd0, 0xbd,
  0xca, 0x68, 0x28, 0xbe, 0xd2, 0x01, 0x0b, 0xbe, 0x06, 0xf8, 0x2a, 0xbd,
  0x98, 0xdb, 0x6b, 0x3e, 0x25, 0x36, 0x68, 0xbe, 0x99, 0x38, 0x47, 0xbd,
  0xba, 0x7f, 0xfc, 0x3d, 0x30, 0x4a, 0xa3, 0xbe, 0xd3, 0xa3, 0x28, 0x3e,
  0x50, 0x02, 0x56, 0xbe, 0x8a, 0xf2, 0xa4, 0xbe, 0xd2, 0x89, 0x33, 0x3d,
  0xa4, 0x76, 0xe2, 0xbe, 0xb0, 0x26, 0x04, 0xbe, 0x9c, 0x03, 0x1a, 0xbe,
  0x83, 0x18, 0x36, 0xbe, 0xf4, 0x17, 0x4f, 0x3c, 0x77, 0x28, 0x13, 0xbc,
  0xd6, 0x88, 0xae, 0xbd, 0x98, 0x39, 0x34, 0xbd, 0x13, 0x16, 0xe0, 0xbd,
  0x38, 0xca, 0x27, 0xbd, 0x83, 0xa1, 0x5f, 0x3d, 0xe4, 0xc7, 0x4c, 0xbe,
  0xc2, 0xe4, 0x8a, 0x3e, 0xc2, 0x1d, 0x40, 0x3b, 0xb6, 0x68, 0x58, 0xbe,
  0xf2, 0x8b, 0x82, 0x3d, 0xe4, 0xae, 0x8e, 0xbe, 0x98, 0x8b, 0xdc, 0xbc,
  0xac, 0xa5, 0x7c, 0xbc, 0x73, 0x15, 0x80, 0xbc, 0xaa, 0x24, 0xbd, 0xbe,
  0xab, 0xef, 0x6a, 0x3e, 0xcb, 0x9b, 0xea, 0x3d, 0xf2, 0x5f, 0x9f, 0xbe,
  0x4c, 0xc2, 0x41, 0xbd, 0xc0, 0xcb, 0x86, 0x3e, 0x7f, 0xe5, 0x60, 0x3e,
  0x9e, 0x57, 0x00, 0xbf, 0xbd, 0xe4, 0xbd, 0xbe, 0x33, 0x68, 0x35, 0x3e,
  0x80, 0x80, 0xc8, 0xbd, 0x1a, 0xb4, 0x2a, 0x3d, 0xcb, 0xea, 0x2c, 0xbe,
  0xfc, 0x26, 0x20, 0x3d, 0xf3, 0x79, 0x15, 0xbe, 0x84, 0x6d, 0xa9, 0x3d,
  0xfd, 0x2f, 0xe9, 0x3b, 0x69, 0xe9, 0x01, 0x3e, 0xa7, 0x22, 0x97, 0xbd,
  0x38, 0x58, 0x99, 0xbe, 0x59, 0xf3, 0x94, 0x3d, 0x88, 0xfc, 0xb1, 0xbd,
  0xcd, 0xf8, 0x1d, 0x3e, 0x4e, 0x19, 0xc0, 0xbe, 0xf2, 0xe6, 0x9b, 0xbe,
  0x09, 0xed, 0x8a, 0x3e, 0xf4, 0x18, 0x35, 0x3d, 0x0a, 0xd3, 0xb5, 0xbc,
  0xd6, 0x3d, 0x81, 0x3e, 0xce, 0x27, 0x16, 0xbe, 0x32, 0x41, 0x8d, 0xbd,
  0x26, 0x84, 0x9c, 0xbe, 0xef, 0xad, 0x6e, 0x3d, 0x01, 0xd0, 0x79, 0xbe,
  0x70, 0xb2, 0x9b, 0xbe, 0x5e, 0x81, 0xba, 0xbe, 0x99, 0x75, 0x71, 0xbe,
  0xd0, 0xe2, 0x90, 0xbe, 0x99, 0x82, 0xb4, 0xbd, 0xa4, 0x24, 0x29, 0xbe,
  0xd6, 0x57, 0x3d, 0xbd, 0xec, 0xa8, 0xe0, 0x3d, 0x76, 0xe2, 0x00, 0xbe,
  0xd3, 0x4f, 0x7e, 0xbc, 0x69, 0x1d, 0xc8, 0xbc, 0x8a, 0xe3, 0xc9, 0xbe,
  0x41, 0x45, 0x48, 0xbe, 0xb3, 0xad, 0x93, 0xbe, 0x30, 0x3e, 0x36, 0xbd,
  0xd0, 0xe2, 0x1f, 0xbe, 0x3b, 0x47, 0x90, 0xbe, 0x69, 0x83, 0x13, 0xbf,
  0x57, 0xec, 0x08, 0xbf, 0xed, 0x0c, 0x8d, 0xbe, 0xe1, 0x09, 0x54, 0xbe,
  0xd0, 0xc3, 0xb9, 0xbc, 0x51, 0xb3, 0x1f, 0xbe, 0xa2, 0xd3, 0x72, 0xbd,
  0x00, 0xa7, 0xde, 0xbd, 0x48, 0xbe, 0xf0, 0xbc, 0x13, 0x5e, 0x06, 0xbf,
  0x3d, 0xa5, 0x3a, 0xbd, 0x37, 0x47, 0x50, 0xbe, 0xf9, 0x09, 0x81, 0xbc,
  0xb0, 0x3f, 0x83, 0xbe, 0x30, 0x5e, 0x10, 0x3f, 0xb0, 0x1e, 0x39, 0xbc,
  0x92, 0x9e, 0xde, 0xbe, 0x26, 0xa5, 0x59, 0xbe, 0xcb, 0x0c, 0xe4, 0x3c,
  0xaf, 0x98, 0x34, 0x3d, 0x8a, 0x42, 0x80, 0xbe, 0x6e, 0xbc, 0xaf, 0xbe,
  0x51, 0x68, 0xee, 0xbd, 0x7b, 0x49, 0x51, 0xbd, 0x22, 0x8b, 0x2e, 0xbd,
  0xae, 0x01, 0x03, 0xbe, 0x00, 0x6c, 0x76, 0xbc, 0x9c, 0x9b, 0xd5, 0xbd,
  0xce, 0x04, 0x0b, 0x3d, 0x74, 0x76, 0xd9, 0xbd, 0x52, 0x06, 0xcd, 0x3e,
  0x29, 0xef, 0x16, 0x3e, 0xe3, 0x43, 0xf0, 0xbe, 0xaf, 0x0f, 0xd1, 0x3d,
  0xaa, 0x44, 0x16, 0x3e, 0x43, 0xc5, 0x58, 0x3e, 0x1c, 0x67, 0xeb, 0xbe,
  0x7d, 0x91, 0xd6, 0xbe, 0x3a, 0xf2, 0x41, 0x3e, 0x32, 0x3a, 0xd7, 0xbc,
  0x25, 0x3c, 0xa6, 0xbc, 0x0c, 0x03, 0x56, 0xbe, 0x1d, 0xab, 0x20, 0xbc,
  0xa0, 0x17, 0x5c, 0xbb, 0xaa, 0xa6, 0xe2, 0x3d, 0x10, 0xa1, 0x31, 0xbe,
  0xe9, 0x2b, 0x6f, 0x3d, 0xde, 0xbb, 0x76, 0x3b, 0xe0, 0xe6, 0xe3, 0xbe,
  0x0f, 0x4c, 0xa3, 0xbd, 0x6d, 0xaf, 0x52, 0x3d, 0xbf, 0x2a, 0xf3, 0x3c,
  0x67, 0xe6, 0x55, 0xbe, 0x9d, 0x3d, 0xf3, 0xbc, 0x2b, 0x59, 0x30, 0x3e,
  0x3c, 0x7c, 0x99, 0x3b, 0x57, 0xb7, 0xa0, 0xbc, 0xeb, 0xcd, 0xa9, 0xbe,
  0xe5, 0xa1, 0xcf, 0x3d, 0x30, 0x52, 0xe6, 0xbd, 0x4c, 0x3c, 0x16, 0xbe,
  0xd2, 0x30, 0x83, 0xbe, 0xfc, 0x38, 0xd2, 0xbd, 0xf5, 0x98, 0x2b, 0xbd,
  0x08, 0x6f, 0x18, 0x3e, 0xf8, 0xb0, 0x6c, 0xbe, 0xf8, 0x96, 0x36, 0xbe,
  0xfa, 0x1e, 0x46, 0xbf, 0xeb, 0x19, 0x99, 0xbe, 0x68, 0x94, 0x3a, 0x3c,
  0xd6, 0xcc, 0x42, 0xbd, 0xf3, 0xc5, 0x5b, 0xbf, 0x45, 0xc8, 0x22, 0x3d,
  0x1d, 0x44, 0xc5, 0xbd, 0x09, 0x2d, 0x0f, 0xbe, 0xca, 0x1c, 0xe7, 0x3d,
  0x81, 0x1a, 0xdb, 0xbd, 0x2c, 0xbf, 0x42, 0xbd, 0x9d, 0x97, 0x18, 0xbe,
  0xf6, 0x53, 0xef, 0x3e, 0x57, 0x8e, 0xbe, 0x3d, 0xdb, 0xeb, 0x92, 0xbe,
  0xfb, 0x3b, 0x56, 0xbd, 0x4f, 0xc0, 0xdb, 0xbe, 0x82, 0x8f, 0xd7, 0xbe,
  0x01, 0xd0, 0x25, 0x3d, 0xa0, 0xdd, 0x38, 0x3e, 0xb8, 0x01, 0xb9, 0xbe,
  0xfa, 0x57, 0x61, 0x3d, 0xab, 0xcf, 0xcb, 0x3d, 0xbf, 0x39, 0xa3, 0xbd,
  0x82, 0x8c, 0x0f, 0x3e, 0x01, 0x60, 0x89, 0xbe, 0x56, 0x0c, 0xe8, 0x3d,
  0x27, 0xd4, 0xaa, 0xbd, 0x52, 0x54, 0xcf, 0x3e, 0xdb, 0x9d, 0xe7, 0x3c,
  0x6a, 0x54, 0x2d, 0xbe, 0xc2, 0x6d, 0x38, 0x3e, 0xce, 0x59, 0xe1, 0xbd,
  0x3e, 0x34, 0x90, 0xbe, 0x7d, 0x1f, 0xed, 0x3c, 0x33, 0x5f, 0x7c, 0x3e,
  0x28, 0x50, 0x9b, 0x3d, 0x0b, 0x2b, 0x7b, 0x3d, 0x43, 0x17, 0xd5, 0xbd,
  0x5b, 0xf4, 0xa9, 0xbd, 0x3e, 0xcf, 0xfd, 0x3d, 0x8e, 0x97, 0x59, 0xbe,
  0x3e, 0x97, 0x09, 0x3e, 0x35, 0xe2, 0x23, 0x3d, 0xd1, 0x61, 0x8f, 0x3e,
  0xff, 0x43, 0x95, 0x3d, 0x55, 0x79, 0x2f, 0xbe, 0x5a, 0xef, 0x92, 0x3e,
  0x34, 0xb1, 0x06, 0xbb, 0x2f, 0x22, 0xa6, 0xbc, 0x42, 0xbc, 0xbd, 0x3c,
  0xa9, 0xef, 0xa1, 0x3d, 0x7b, 0xc8, 0x51, 0xbb, 0x6c, 0x7d, 0x1e, 0x3d,
  0xa6, 0x63, 0xf8, 0xbd, 0x2d, 0x30, 0xb1, 0x3d, 0x7e, 0xcf, 0xef, 0x3d,
  0xbe, 0xb2, 0x5c, 0xbe, 0x14, 0x0d, 0x34, 0x3d, 0x5b, 0xeb, 0x83, 0x3a,
  0x83, 0x62, 0x9f, 0x3e, 0xa2, 0x9e, 0x7a, 0xbc, 0xd2, 0x80, 0x44, 0xbe,
  0x4d, 0xa0, 0x8d, 0xbd, 0xf1, 0x66, 0x1a, 0xbe, 0xf2, 0x37, 0x72, 0xbe,
  0x21, 0x47, 0x7a, 0xbd, 0xc5, 0x53, 0x72, 0x3d, 0x5e, 0xc7, 0x61, 0xbe,
  0xdc, 0x24, 0x70, 0x3c, 0x96, 0x9c, 0xf7, 0xbd, 0x23, 0x2c, 0xb0, 0xbc,
  0x4a, 0xb6, 0xa0, 0x3d, 0x57, 0x87, 0xd9, 0xbe, 0xec, 0x84, 0x5b, 0x3d,
  0xcc, 0x88, 0x61, 0xbe, 0x6b, 0x3e, 0xcb, 0x3d, 0x4d, 0x8c, 0x87, 0x3d,
  0xd3, 0xfb, 0x82, 0xbe, 0xa2, 0x4a, 0xaf, 0x3d, 0x38, 0x2a, 0x20, 0xbe,
  0xcf, 0xc4, 0x85, 0xbe, 0x80, 0xf6, 0x33, 0x3e, 0x93, 0xa8, 0x5e, 0xbd,
  0xaf, 0xc0, 0x8b, 0xbe, 0x97, 0x54, 0xac, 0xbb, 0x8c, 0x8c, 0xd8, 0xbe,
  0xec, 0xa4, 0xdd, 0xbe, 0x5a, 0x93, 0x8f, 0x3c, 0x08, 0x92, 0xcd, 0xbe,
  0x3b, 0x41, 0xf5, 0x3c, 0x96, 0x29, 0x98, 0xbc, 0xb8, 0x18, 0xd6, 0xbd,
  0xfa, 0xeb, 0xbc, 0x3d, 0x9b, 0xc9, 0xda, 0xbd, 0xc7, 0x6f, 0x17, 0xbd,
  0xcf, 0x53, 0x4c, 0xbc, 0xce, 0x9f, 0x00, 0xbe, 0xed, 0x23, 0x29, 0x3e,
  0x76, 0x30, 0xfb, 0x3d, 0xd8, 0xaf, 0x1d, 0xbe, 0xb1, 0xed, 0x5c, 0x3a,
  0x4a, 0xe0, 0x56, 0xbe, 0x91, 0x7a, 0xd9, 0x3d, 0x70, 0x8a, 0x13, 0x3c,
  0x13, 0x9d, 0x76, 0x3d, 0x97, 0x56, 0xef, 0x3e, 0x39, 0xa4, 0xa8, 0x3d,
  0x39, 0x4f, 0xdf, 0xbd, 0x2f, 0xf8, 0x1c, 0xbe, 0x68, 0xd5, 0xd8, 0xbd,
  0xbe, 0x2e, 0x34, 0x3d, 0x3c, 0x92, 0x02, 0xbe, 0x4b, 0x67, 0x91, 0x3e,
  0x48, 0x6d, 0x93, 0xbe, 0xde, 0xf8, 0xb3, 0x3d, 0x72, 0x95, 0xfb, 0x3b,
  0xb8, 0xbb, 0xc3, 0xbe, 0x4a, 0x9a, 0x10, 0xbe, 0xeb, 0xa4, 0xa0, 0x3e,
  0xb7, 0xea, 0x33, 0x3c, 0x21, 0x2f, 0x60, 0xbe, 0xda, 0x2e, 0x14, 0xbe,
  0x48, 0xee, 0x93, 0x3e, 0x29, 0x3d, 0x9c, 0x3d, 0x2c, 0x5e, 0x12, 0x3e,
  0x12, 0xd9, 0x4f, 0xbe, 0x51, 0x88, 0x82, 0x3e, 0x10, 0x20, 0x8a, 0xbb,
  0xc0, 0xbc, 0x9e, 0x3e, 0xc9, 0x4d, 0x53, 0xbc, 0xa8, 0xde, 0xd3, 0x3d,
  0x80, 0xed, 0x34, 0xbd, 0x4f, 0xfd, 0xc7, 0x3b, 0xdf, 0x4d, 0xd0, 0x3e,
  0x54, 0x81, 0xf1, 0x3e, 0xca, 0xac, 0xe3, 0x3b, 0x53, 0x19, 0xc4, 0x3d,
  0x0c, 0x3b, 0xdf, 0x3d, 0xb7, 0xfd, 0xda, 0x3e, 0xe5, 0xdf, 0x87, 0xbd,
  0x82, 0xa5, 0xf1, 0x3e, 0xde, 0x99, 0xd7, 0x3d, 0x8e, 0x47, 0x51, 0x3e,
  0xee, 0x9d, 0x9d, 0x3e, 0x77, 0xeb, 0x0a, 0x3e, 0x31, 0x70, 0xe4, 0x3d,
  0x28, 0xbe, 0x9b, 0x3e, 0x19, 0x5a, 0x6b, 0xbe, 0x28, 0x80, 0x2e, 0xbd,
  0xc5, 0x7f, 0xbc, 0x3d, 0x6c, 0xd7, 0xad, 0x3e, 0x65, 0x02, 0x14, 0xbd,
  0x90, 0xb3, 0x7b, 0xbb, 0x7b, 0x24, 0x03, 0xbc, 0x69, 0xc2, 0x62, 0x3e,
  0xab, 0xea, 0x3f, 0x3e, 0xf3, 0x0f, 0x7d, 0x3e, 0x38, 0xd2, 0xb2, 0x3d,
  0x4c, 0x96, 0xcc, 0xbc, 0xdb, 0x5a, 0xa2, 0x3d, 0xa3, 0x19, 0xc4, 0xbd,
  0xd9, 0xa9, 0x30, 0xbd, 0x35, 0x9a, 0x9a, 0xbd, 0x19, 0xf4, 0xa3, 0xbd,
  0x86, 0x3d, 0x2d, 0xbe, 0xe4, 0xa7, 0x01, 0x3f, 0x1c, 0x8a, 0x7f, 0x3e,
  0xaf, 0x19, 0xb2, 0xbc, 0xe2, 0x76, 0x8b, 0xbe, 0xc3, 0xa1, 0xc3, 0xbc,
  0x43, 0xca, 0x01, 0xbe, 0x24, 0x39, 0x84, 0xbe, 0x78, 0x4e, 0x2c, 0x3f,
  0xa9, 0xcc, 0x8d, 0x3d, 0x6c, 0x20, 0x9b, 0xbe, 0x41, 0x0a, 0x0f, 0xbd,
  0x0c, 0x00, 0xb6, 0xbe, 0x7a, 0x03, 0x09, 0x3d, 0x86, 0x3d, 0x19, 0x3e,
  0xa2, 0xa7, 0x44, 0xbe, 0xb4, 0x7f, 0xa5, 0xbd, 0x13, 0x38, 0x0f, 0x3e,
  0xd7, 0xd9, 0x7c, 0xbe, 0x00, 0x9d, 0x8d, 0xbe, 0x3c, 0x94, 0xa0, 0x3d,
  0x04, 0x56, 0x19, 0xbe, 0x4e, 0xd6, 0x23, 0x3e, 0x8e, 0x7c, 0x4a, 0xbe,
  0x16, 0xb2, 0xb6, 0x3e, 0xb0, 0xe6, 0x48, 0xbe, 0x69, 0x7d, 0xfe, 0xbd,
  0xca, 0x87, 0xe0, 0xbc, 0x3e, 0x73, 0xb7, 0xbe, 0xae, 0xad, 0x80, 0x3e,
  0xbd, 0xcd, 0xca, 0xbd, 0x39, 0x6a, 0x50, 0xbc, 0x6b, 0x50, 0x5d, 0xbe,
  0x6b, 0x40, 0x52, 0xbd, 0xa2, 0x7d, 0x19, 0xbe, 0x9f, 0x20, 0x83, 0xbe,
  0x33, 0xd8, 0x9a, 0x3d, 0xae, 0xf1, 0x24, 0x3c, 0x8b, 0xf4, 0xb9, 0x3d,
  0x51, 0xc2, 0x20, 0x3d, 0x2f, 0x67, 0x6d, 0xbb, 0x66, 0xb7, 0x7e, 0xbe,
  0x0c, 0x78, 0x87, 0x3c, 0xa4, 0x8f, 0x53, 0x3e, 0x61, 0xa1, 0xca, 0xbd,
  0x48, 0x3f, 0x51, 0x3e, 0xee, 0x1a, 0x81, 0x3e, 0xa0, 0x65, 0xcc, 0xbd,
  0x41, 0x7f, 0xa1, 0xbe, 0x53, 0x63, 0x88, 0xbc, 0x8e, 0x38, 0x27, 0x3e,
  0xa1, 0xe2, 0xcc, 0xbe, 0x6e, 0xc5, 0xb6, 0xbd, 0x04, 0xac, 0x27, 0xbf,
  0x7d, 0x22, 0x92, 0x3a, 0x0d, 0x44, 0xaf, 0xbe, 0xaa, 0x34, 0x4e, 0x3c,
  0xc9, 0xd2, 0x08, 0xbf, 0x24, 0x12, 0xa4, 0xbe, 0x73, 0x61, 0xa0, 0xbe,
  0x8b, 0x7a, 0xba, 0xbd, 0x05, 0x9b, 0x8f, 0xbe, 0xc0, 0x2d, 0x42, 0xbe,
  0xed, 0xa4, 0x8e, 0xbe, 0x91, 0x2a, 0x1e, 0xbd, 0x5a, 0xaf, 0xe9, 0xbc,
  0xd2, 0x36, 0x81, 0xbd, 0x41, 0x36, 0x07, 0xbf, 0x13, 0xcc, 0x84, 0xbe,
  0xc9, 0x7a, 0x53, 0xbf, 0x03, 0x6e, 0x91, 0xbd, 0xd5, 0x61, 0x43, 0xbe,
  0xe5, 0x99, 0x1d, 0x3c, 0x5f, 0xc3, 0xea, 0xbd, 0x5d, 0x76, 0x89, 0xbd,
  0xa4, 0x0f, 0xcd, 0xbb, 0x2a, 0x9b, 0x91, 0xbe, 0x14, 0xee, 0x5a, 0xbe,
  0x6f, 0xc1, 0x19, 0xbd, 0x7a, 0x4a, 0x9e, 0xbe, 0x22, 0xe4, 0x42, 0xbd,
  0x52, 0x2b, 0x77, 0xbe, 0x80, 0x93, 0xa5, 0x3d, 0x47, 0xb0, 0x08, 0xbf,
  0xe6, 0x21, 0x0f, 0xbd, 0x47, 0x54, 0x5d, 0xbf, 0x21, 0x42, 0x48, 0xbc,
  0x2e, 0xa3, 0x82, 0xbe, 0x39, 0x40, 0xa1, 0x3d, 0x10, 0xa2, 0x66, 0xbd,
  0x2b, 0x90, 0x3c, 0xbd, 0xf5, 0xbb, 0x74, 0xbd, 0xc6, 0xf3, 0x5e, 0xbe,
  0xe1, 0x20, 0xc5, 0xbe, 0x94, 0xe5, 0x22, 0x3c, 0xa3, 0x2f, 0xc0, 0xbe,
  0x47, 0x40, 0xe9, 0xbc, 0xf3, 0x68, 0x81, 0xbd, 0xfc, 0xc6, 0x89, 0xbe,
  0x33, 0x4a, 0x8c, 0xbe, 0x05, 0xd6, 0xb4, 0x3c, 0xbf, 0x2f, 0xde, 0xbe,
  0x00, 0x4b, 0xd7, 0xbd, 0x50, 0x37, 0xbf, 0xbe, 0x34, 0x55, 0xa8, 0xbd,
  0xc6, 0x6a, 0x34, 0x3e, 0xc8, 0xb7, 0x0b, 0xbe, 0x68, 0x1a, 0x6a, 0xbe,
  0xcb, 0x5f, 0x8d, 0xbe, 0xfc, 0xf2, 0x28, 0xbe, 0xd0, 0xf3, 0x83, 0xbe,
  0x91, 0x91, 0x1f, 0xbd, 0xf5, 0x93, 0x4e, 0xbd, 0xfc, 0xb8, 0x83, 0x3d,
  0x52, 0xa0, 0x61, 0xbd, 0x58, 0xd4, 0xb6, 0xbd, 0x0d, 0xb2, 0x53, 0x3c,
  0xea, 0xc2, 0xa1, 0xbe, 0x9d, 0xd5, 0xd5, 0x3d, 0x26, 0x16, 0x88, 0xbc,
  0xdb, 0x17, 0x36, 0x3d, 0xcc, 0x8e, 0x44, 0x3d, 0xd6, 0x48, 0x6f, 0xbd,
  0xa3, 0x39, 0x48, 0x3e, 0x2b, 0xba, 0xd0, 0x3d, 0xd3, 0xfd, 0x9c, 0xbe,
  0xc5, 0x77, 0xaa, 0xbe, 0x83, 0xe9, 0xf6, 0x3d, 0x0a, 0xb2, 0x44, 0xbd,
  0xa1, 0xad, 0x97, 0xbd, 0x0e, 0x74, 0x36, 0xbd, 0xc5, 0xd4, 0x81, 0x3d,
  0x67, 0x31, 0x48, 0x3d, 0x52, 0x7c, 0x23, 0xbe, 0x0f, 0xf8, 0x64, 0x3e,
  0xd2, 0xb6, 0x84, 0xbd, 0xaa, 0x75, 0x30, 0xbe, 0xac, 0x41, 0xcf, 0x3d,
  0x12, 0x32, 0xe1, 0x3d, 0x90, 0xae, 0x9e, 0x3e, 0x0d, 0xf8, 0x58, 0xbe,
  0x47, 0x29, 0x27, 0xbe, 0x1c, 0xdb, 0xe2, 0x3d, 0x70, 0xf6, 0xe1, 0xbb,
  0xe1, 0x79, 0xa4, 0xbc, 0x11, 0x27, 0x91, 0xbd, 0x1d, 0x69, 0x17, 0x3d,
  0x6c, 0xc3, 0xbe, 0x3d, 0xcd, 0x61, 0xc8, 0x3d, 0xdd, 0x61, 0x32, 0xbe,
  0x56, 0xd0, 0x82, 0x3c, 0x19, 0x77, 0xd5, 0xbb, 0xed, 0x10, 0xf7, 0xbd,
  0xe4, 0x09, 0x10, 0x3e, 0xeb, 0x92, 0x6e, 0x3c, 0xc2, 0x36, 0xac, 0xbb,
  0x8a, 0x9e, 0x6f, 0x3c, 0x7c, 0xdc, 0x97, 0x3d, 0xae, 0xf3, 0x6d, 0x3d,
  0x6b, 0x83, 0xeb, 0x3d, 0xd7, 0x33, 0x95, 0x3c, 0xff, 0x04, 0x2c, 0xbd,
  0xbc, 0xbb, 0x8f, 0x3c, 0x73, 0xc2, 0x92, 0x3c, 0x35, 0x3f, 0x8e, 0xbe,
  0x23, 0xb4, 0x75, 0xbe, 0x37, 0xe7, 0x9e, 0xbd, 0x56, 0xa4, 0xce, 0x3c,
  0x1b, 0x45, 0x44, 0x3e, 0x7d, 0x9d, 0x44, 0xbe, 0x61, 0x98, 0x9a, 0x3b,
  0xcb, 0x82, 0x4a, 0xbe, 0xa9, 0x18, 0x90, 0xbd, 0xa0, 0xc2, 0xa1, 0xbd,
  0xa9, 0x35, 0xf3, 0x3d, 0xf0, 0xa7, 0x70, 0xbe, 0x53, 0xd2, 0x94, 0xbe,
  0x5d, 0xac, 0x1f, 0xbe, 0x9d, 0x68, 0x02, 0xbd, 0xc6, 0x67, 0x32, 0xbe,
  0x5a, 0x92, 0x48, 0x3d, 0x29, 0x1e, 0xa5, 0x3d, 0x9b, 0x5f, 0x11, 0x3e,
  0x19, 0x53, 0x25, 0xbe, 0x13, 0x68, 0x1e, 0x3d, 0x64, 0x27, 0xec, 0xbd,
  0xd6, 0x88, 0x98, 0xbd, 0xe6, 0xa9, 0x1b, 0x3e, 0x0a, 0xe8, 0x2f, 0x3e,
  0xe0, 0xd5, 0x3a, 0xbe, 0x17, 0x7e, 0x5c, 0xbe, 0x8b, 0x70, 0xa1, 0x3d,
  0x68, 0x9b, 0x86, 0xbd, 0xfb, 0xf5, 0x31, 0xbe, 0xc9, 0x46, 0x82, 0x3e,
  0x03, 0x2e, 0x02, 0x3d, 0x7d, 0xad, 0xd6, 0x3d, 0x3f, 0x9b, 0x2f, 0x3e,
  0x7b, 0x39, 0x7e, 0xbc, 0xec, 0x0f, 0x74, 0xbe, 0xfa, 0x18, 0x0b, 0x3e,
  0xc7, 0x1a, 0xae, 0xbc, 0xac, 0xf6, 0x05, 0xbd, 0x8a, 0x5d, 0x6f, 0x3c,
  0x8b, 0xd0, 0x48, 0x3c, 0xa8, 0x16, 0x0f, 0x3e, 0xeb, 0xbe, 0xe8, 0xbd,
  0xf5, 0xe2, 0xc6, 0x3c, 0xf2, 0x03, 0x02, 0xbe, 0xf0, 0x83, 0xea, 0x3d,
  0x6b, 0xf8, 0x36, 0x3c, 0x10, 0xf3, 0x82, 0xbd, 0x33, 0x67, 0xa2, 0xbe,
  0x95, 0x76, 0x80, 0xbe, 0xe6, 0x08, 0x28, 0xbe, 0xfa, 0xa7, 0x08, 0xbe,
  0xb1, 0x2f, 0x96, 0xbd, 0x64, 0xc9, 0x87, 0xbe, 0x3f, 0x97, 0x0f, 0x3e,
  0x7a, 0xbf, 0xa0, 0x3c, 0xa6, 0xca, 0xfe, 0xbc, 0x1c, 0x21, 0x76, 0x3d,
  0x3e, 0xd2, 0xe1, 0xbb, 0x57, 0xe2, 0xc7, 0x3d, 0x7e, 0xa8, 0xfa, 0xbd,
  0xe5, 0x85, 0x34, 0xbe, 0xa9, 0x7b, 0x7c, 0xbe, 0xcb, 0xfb, 0x51, 0xbe,
  0x33, 0x66, 0x34, 0xbd, 0x57, 0x4b, 0xe9, 0x3b, 0x60, 0x56, 0x9c, 0xbd,
  0x59, 0xea, 0xc4, 0xbc, 0x1c, 0x27, 0x9a, 0x3d, 0xce, 0xf4, 0xb9, 0xbd,
  0x30, 0xb1, 0x50, 0xbe, 0xcc, 0x92, 0xb4, 0x3d, 0x3a, 0xde, 0xd9, 0x3d,
  0x19, 0x9f, 0x49, 0xbc, 0x9f, 0x11, 0x88, 0x3b, 0x7a, 0xef, 0xbe, 0x3c,
  0xf5, 0x88, 0x54, 0xbe, 0x2f, 0x86, 0x77, 0xbe, 0x78, 0x13, 0x46, 0x3e,
  0xdf, 0x90, 0x22, 0xbe, 0x4d, 0xd6, 0x54, 0xbe, 0xe3, 0xf7, 0x46, 0xbc,
  0x0e, 0x0a, 0x71, 0xbe, 0xb3, 0x01, 0x2d, 0xbe, 0x70, 0x22, 0x43, 0xbd,
  0x0d, 0xc1, 0xc9, 0x3d, 0x15, 0xe1, 0x7c, 0x3d, 0x7c, 0xf3, 0x30, 0xbe,
  0x84, 0x2e, 0x06, 0xbe, 0x6d, 0xf8, 0x51, 0x3d, 0xf3, 0x42, 0x7b, 0xbd,
  0x28, 0x83, 0x8a, 0xbe, 0x03, 0x22, 0xe5, 0xbd, 0x0d, 0x79, 0x4b, 0x3d,
  0x10, 0x17, 0x0f, 0x3e, 0x08, 0x21, 0x28, 0x3d, 0xe4, 0xf0, 0x1d, 0xbe,
  0x05, 0x0d, 0xcc, 0x3d, 0x48, 0xc1, 0x30, 0xbe, 0x88, 0xb6, 0xc9, 0xbd,
  0x3b, 0x33, 0x34, 0xbe, 0x47, 0x99, 0x01, 0x3c, 0xad, 0x34, 0x81, 0xbd,
  0x6c, 0x1b, 0x45, 0xbe, 0x9d, 0x38, 0xc5, 0xbd, 0x90, 0x18, 0xe1, 0x3c,
  0x99, 0x69, 0x85, 0xbc, 0x23, 0x45, 0x61, 0xbe, 0x0d, 0x87, 0x67, 0xbe,
  0xcc, 0xb6, 0xf1, 0xbd, 0x67, 0x50, 0x22, 0xbe, 0x30, 0x44, 0xd6, 0x3c,
  0x6f, 0x0b, 0xb9, 0x3d, 0xe3, 0xfa, 0x7f, 0xbe, 0x69, 0xed, 0xdc, 0xbe,
  0x80, 0xa5, 0x08, 0xbe, 0x91, 0x51, 0x2e, 0x3e, 0xed, 0x4c, 0xf1, 0x3d,
  0x89, 0xe9, 0x90, 0xbe, 0xe9, 0xb0, 0x28, 0xbe, 0xf3, 0x69, 0x2e, 0x3e,
  0x75, 0x88, 0xe6, 0xbc, 0x29, 0x03, 0x06, 0xbf, 0xb6, 0x3f, 0xe9, 0x3d,
  0x57, 0x2e, 0x04, 0xbd, 0x1b, 0x27, 0x61, 0x3e, 0x09, 0x47, 0x66, 0xbe,
  0x33, 0x3b, 0x13, 0xbe, 0xeb, 0x7f, 0xa9, 0x3d, 0x17, 0x86, 0x9e, 0x3d,
  0x3c, 0x27, 0x7b, 0xbe, 0x93, 0xf6, 0xa7, 0xbe, 0x3f, 0x87, 0x38, 0xbe,
  0xfd, 0xb6, 0x3c, 0x3e, 0x81, 0xec, 0xcb, 0xbe, 0x01, 0xe9, 0x8c, 0x3d,
  0x98, 0xaa, 0x12, 0x3e, 0xc3, 0xc6, 0xf5, 0xbd, 0x49, 0xf3, 0x3c, 0xbe,
  0xfd, 0xf8, 0x37, 0x3d, 0x98, 0x81, 0x3d, 0xbd, 0x06, 0x0e, 0xdd, 0xbe,
  0xcd, 0x2d, 0x18, 0x3e, 0xd7, 0xcc, 0x71, 0xbe, 0x0e, 0x6b, 0x9c, 0x3e,
  0x36, 0x10, 0xdc, 0xbe, 0x30, 0x85, 0x94, 0xbe, 0x8c, 0x01, 0xc1, 0xbe,
  0x3b, 0x41, 0x1b, 0x3d, 0x2a, 0xcc, 0x89, 0x3e, 0x04, 0xbb, 0x4a, 0xbe,
  0x88, 0x68, 0xdf, 0xbd, 0x58, 0x68, 0xb2, 0x3e, 0x34, 0xc0, 0xf3, 0xbe,
  0x66, 0xc4, 0x7f, 0xbe, 0x0a, 0x33, 0x3b, 0x3e, 0xcc, 0x9e, 0x1c, 0xbd,
  0x29, 0x19, 0xb1, 0x3d, 0xf0, 0x40, 0x35, 0x3e, 0x1f, 0x4c, 0x81, 0xbd,
  0x1c, 0xb9, 0x76, 0x3e, 0xb1, 0x75, 0xaf, 0xbe, 0x78, 0xa7, 0x0c, 0xbe,
  0x58, 0x59, 0xf5, 0xbe, 0x62, 0x31, 0x90, 0xbd, 0xeb, 0x2d, 0xbb, 0x3e,
  0xc9, 0x1c, 0x0a, 0xbe, 0x97, 0x03, 0x0f, 0xbe, 0x02, 0x8f, 0x6c, 0x3f,
  0x76, 0x74, 0x98, 0xbd, 0x3c, 0xbb, 0xc5, 0xbe, 0xb1, 0xbd, 0x50, 0xbd,
  0xb5, 0x49, 0x8e, 0x3c, 0xc7, 0xef, 0x58, 0x3e, 0x38, 0x82, 0x9f, 0xbe,
  0x01, 0x77, 0xc8, 0xbb, 0x71, 0xab, 0xf3, 0x3d, 0xdb, 0xcd, 0x91, 0xbe,
  0x51, 0x6c, 0x6a, 0xbe, 0xdc, 0x67, 0x2a, 0xbf, 0x2c, 0x79, 0x9a, 0xbc,
  0xe8, 0x76, 0xa7, 0x3e, 0x22, 0xd5, 0x2a, 0xbe, 0xef, 0x5c, 0x51, 0x3e,
  0xa3, 0xc4, 0x20, 0x3f, 0x42, 0x3f, 0x19, 0xbd, 0xac, 0x7b, 0x40, 0xbe,
  0x84, 0x34, 0x3a, 0x3e, 0x24, 0x32, 0x5a, 0xbb, 0xc2, 0xb9, 0xae, 0x3e,
  0x04, 0xd5, 0x14, 0xbe, 0xbe, 0x12, 0x45, 0x3c, 0x63, 0xfd, 0xa7, 0x3d,
  0x5c, 0xfe, 0x85, 0xbe, 0xfc, 0x34, 0x03, 0xbf, 0x5b, 0xbd, 0x13, 0xbf,
  0x9b, 0xb8, 0xa7, 0xbd, 0x27, 0x92, 0xea, 0x3d, 0xa2, 0x93, 0x34, 0xbf,
  0xa3, 0x02, 0x51, 0xbe, 0x85, 0x62, 0xa9, 0x3e, 0x79, 0x40, 0xa5, 0x3c,
  0xc8, 0xa1, 0x82, 0xbe, 0xd2, 0x00, 0x4d, 0x3e, 0x90, 0x3e, 0x6f, 0xbc,
  0x9d, 0x9b, 0xd2, 0x3e, 0x92, 0x5f, 0x3b, 0xbe, 0xfa, 0x0d, 0x1f, 0xbc,
  0xb6, 0x0c, 0x2b, 0x3d, 0xb5, 0x02, 0x19, 0xbe, 0x13, 0xe8, 0x5b, 0xbd,
  0xb1, 0x9d, 0xc4, 0xbc, 0xa9, 0x5e, 0xa3, 0xbe, 0xec, 0xd8, 0x8b, 0x3d,
  0x92, 0x74, 0x3c, 0xbe, 0x5a, 0x33, 0x0b, 0xbe, 0x13, 0xc2, 0x61, 0x3e,
  0x4a, 0x43, 0xa2, 0xbe, 0x0d, 0x37, 0x1a, 0xbf, 0xa1, 0xd3, 0x59, 0x3e,
  0xa7, 0x35, 0x01, 0xba, 0xcc, 0xb2, 0x76, 0x3e, 0xed, 0xe2, 0xce, 0xbe,
  0x78, 0xd0, 0x66, 0xbf, 0xc3, 0x66, 0xe7, 0xbc, 0x7f, 0x5b, 0x29, 0xbf,
  0x2f, 0x76, 0x9a, 0x3d, 0x9d, 0xaa, 0x09, 0xbf, 0xa1, 0xaf, 0x81, 0xbe,
  0x8f, 0x5d, 0x42, 0xbf, 0xe9, 0x65, 0x5b, 0xbe, 0xf6, 0xc8, 0x30, 0xbf,
  0x43, 0xd5, 0x4c, 0xbe, 0x14, 0x99, 0x08, 0xbf, 0x16, 0x8f, 0xbb, 0xbe,
  0xb1, 0x8c, 0xe9, 0xbe, 0xa1, 0x96, 0x8e, 0xbd, 0xa4, 0x28, 0x8a, 0xbe,
  0x1d, 0xf6, 0xcf, 0xbe, 0x03, 0x0e, 0x2a, 0xbf, 0xda, 0xd0, 0x95, 0x3c,
  0xbf, 0xfc, 0xf1, 0xbe, 0x35, 0x27, 0x76, 0x3e, 0x11, 0x02, 0xd0, 0x3c,
  0x9f, 0x84, 0x6c, 0xbe, 0xb4, 0x04, 0xe5, 0xbd, 0x95, 0x29, 0x43, 0xbe,
  0xb2, 0x2c, 0x50, 0xbd, 0x2f, 0x0d, 0xa0, 0xbe, 0x4f, 0x3d, 0x86, 0xbe,
  0x55, 0xe3, 0x98, 0xbe, 0xe1, 0x43, 0xa5, 0xbe, 0xdc, 0xa4, 0xaf, 0xbd,
  0xf7, 0xb5, 0x1d, 0xbe, 0xda, 0xc4, 0xbb, 0xbe, 0x82, 0xd2, 0x2f, 0xbf,
  0x86, 0x6d, 0x7f, 0xbe, 0xb9, 0x28, 0x4f, 0xbf, 0x79, 0xf8, 0x5d, 0xbd,
  0x4e, 0x78, 0xf7, 0xbd, 0x06, 0x59, 0xa9, 0xbe, 0x35, 0x48, 0x5e, 0xbe,
  0x87, 0xc4, 0x96, 0xbd, 0xa6, 0x8f, 0xe2, 0xbd, 0x45, 0x78, 0x23, 0xbe,
  0x52, 0x08, 0x87, 0xbe, 0x47, 0x7c, 0xbe, 0xbd, 0xe9, 0xed, 0xd8, 0xbe,
  0x45, 0x8d, 0x69, 0xbd, 0x2c, 0x8d, 0x3a, 0xbe, 0xf4, 0x4b, 0xad, 0xbe,
  0xea, 0xb6, 0x61, 0xbf, 0xfe, 0xbe, 0x38, 0xbf, 0xac, 0xb6, 0xeb, 0xbe,
  0x28, 0x80, 0xdf, 0xbd, 0x0e, 0x17, 0xf2, 0xbe, 0xef, 0xad, 0xad, 0xbe,
  0xb2, 0x0d, 0x2f, 0xbe, 0x49, 0xc8, 0x6d, 0xbd, 0x9d, 0x77, 0x14, 0xbf,
  0x74, 0xdb, 0xcd, 0xbe, 0x8a, 0xc2, 0x99, 0xbe, 0xea, 0xb4, 0x0b, 0xbe,
  0x72, 0x64, 0x21, 0xbe, 0xed, 0xcd, 0x75, 0xbd, 0x75, 0xaa, 0x2b, 0xbe,
  0x06, 0xd3, 0xe0, 0xbe, 0x60, 0x9d, 0x45, 0xbf, 0x9f, 0x5b, 0x75, 0x3d,
  0x42, 0xaa, 0x02, 0xbf, 0x78, 0x2b, 0x6c, 0x3e, 0x18, 0xd5, 0x2d, 0x3d,
  0x6f, 0xa6, 0x66, 0xbe, 0xc1, 0x08, 0xfa, 0xbc, 0x26, 0x5f, 0xa1, 0xbe,
  0xec, 0xcc, 0x26, 0xbe, 0x3c, 0xc8, 0xab, 0xbd, 0x7f, 0xb8, 0xe5, 0xbe,
  0x8f, 0x05, 0x2f, 0xbe, 0xf6, 0x24, 0x26, 0x3e, 0x17, 0xa5, 0x85, 0xbd,
  0x7b, 0x07, 0x08, 0xbe, 0x08, 0xc4, 0x45, 0xbb, 0x4d, 0x43, 0x07, 0xbe,
  0x34, 0x98, 0x4e, 0x3d, 0x6f, 0xb3, 0x5b, 0xbe, 0x66, 0xe5, 0xf1, 0x3e,
  0xb9, 0x75, 0x1c, 0x3e, 0x91, 0xc3, 0xbd, 0xbc, 0x29, 0xfb, 0x63, 0xbb,
  0x3b, 0x9c, 0x4b, 0x3e, 0x47, 0xe5, 0xaa, 0x3e, 0xe6, 0xb7, 0x6b, 0xbe,
  0xfb, 0xeb, 0x52, 0xbe, 0x61, 0x03, 0xc1, 0x3d, 0x3f, 0x9b, 0x02, 0x3d,
  0xb8, 0x1f, 0x4c, 0x3b, 0x7c, 0x34, 0xbe, 0xbe, 0x58, 0x2c, 0x3c, 0x3d,
  0x3b, 0xbf, 0xba, 0x3d, 0xc5, 0x9c, 0xa6, 0x3d, 0xf0, 0x6e, 0xfe, 0xbd,
  0xaa, 0x52, 0xba, 0x3d, 0x35, 0x79, 0x7f, 0x3e, 0xa3, 0x80, 0x3c, 0xbe,
  0xc2, 0xbc, 0x14, 0x3c, 0x85, 0xa7, 0xa5, 0x3c, 0xdf, 0x33, 0x27, 0x3c,
  0xd0, 0xed, 0x62, 0xbe, 0x4a, 0x93, 0x90, 0x3d, 0x1f, 0xa7, 0x1b, 0x3e,
  0x32, 0xc9, 0xed, 0x3c, 0x32, 0x40, 0x51, 0x3d, 0x3d, 0x94, 0x93, 0xbd,
  0xcb, 0x0d, 0xa7, 0x3e, 0x51, 0x36, 0x0b, 0xbe, 0xb4, 0xa6, 0x03, 0xbe,
  0x7f, 0x85, 0x0c, 0x3e, 0x73, 0x88, 0x73, 0xbe, 0xa2, 0x66, 0x1f, 0xbe,
  0xdd, 0xdd, 0x6a, 0x3d, 0x2a, 0xa0, 0x6d, 0xbe, 0x40, 0xc7, 0xd9, 0xbd,
  0xd0, 0x1f, 0xb5, 0xbc, 0x7c, 0x48, 0x43, 0xbe, 0x05, 0x28, 0x94, 0x3e,
  0xc9, 0x0a, 0x8a, 0xbd, 0x81, 0xaf, 0x8a, 0xbe, 0x97, 0x88, 0x86, 0xbe,
  0x98, 0x09, 0x1c, 0xbd, 0xa8, 0xc2, 0x17, 0x3d, 0x83, 0xf7, 0x90, 0xbe,
  0x3c, 0x30, 0xe5, 0x3d, 0x37, 0x31, 0x9f, 0x3d, 0x54, 0x02, 0x00, 0xbd,
  0x41, 0x57, 0x57, 0xbe, 0x45, 0x92, 0x72, 0x3e, 0x65, 0x9d, 0x87, 0xbc,
  0x64, 0xb6, 0xed, 0x3d, 0xe4, 0xdd, 0x52, 0xbe, 0x65, 0x38, 0x27, 0xbd,
  0x0c, 0x54, 0x7d, 0x3c, 0x27, 0xc6, 0x21, 0xbe, 0xc3, 0x7a, 0xc8, 0xbd,
  0x58, 0x69, 0x9d, 0xbc, 0x8b, 0xc8, 0x20, 0x3e, 0xc9, 0x62, 0xb6, 0xbd,
  0xaa, 0xa2, 0x0c, 0xbe, 0xd3, 0x5b, 0x14, 0x3e, 0x8e, 0xad, 0x8f, 0xbe,
  0xfe, 0x26, 0xf6, 0xbd, 0x8a, 0x2d, 0x7e, 0xbe, 0x9a, 0xb3, 0xff, 0x3d,
  0x42, 0x50, 0x6d, 0xbd, 0x51, 0x25, 0x89, 0xbd, 0xf7, 0xe1, 0x8f, 0xbd,
  0x64, 0xde, 0x0d, 0x3d, 0x19, 0xf7, 0xfd, 0x3d, 0xfb, 0x8d, 0x64, 0xbe,
  0xa2, 0x0f, 0x55, 0x3d, 0x92, 0x1e, 0x05, 0xbe, 0x00, 0x16, 0xa2, 0x3d,
  0x71, 0x69, 0xc9, 0x3d, 0x18, 0xcf, 0xd9, 0xbd, 0x85, 0x4d, 0x08, 0xbe,
  0xd0, 0x49, 0x51, 0x3e, 0x3d, 0xbe, 0x72, 0x3e, 0x47, 0x01, 0xea, 0xbd,
  0x30, 0xcf, 0xd6, 0x3d, 0x84, 0x44, 0xb4, 0x3d, 0x2b, 0x91, 0x2a, 0xbe,
  0xbf, 0xd0, 0xee, 0xbd, 0x13, 0xda, 0xb6, 0xbd, 0x69, 0x12, 0xbc, 0x3d,
  0xb6, 0x69, 0x42, 0x3e, 0xd0, 0x1b, 0xab, 0xbd, 0x3d, 0x8e, 0x8e, 0xbe,
  0x99, 0xc5, 0xb1, 0x3d, 0x8a, 0x67, 0xac, 0x3d, 0xd5, 0x58, 0x32, 0xbd,
  0xc9, 0x9e, 0xac, 0x3d, 0xd4, 0xdd, 0x78, 0x3d, 0xd3, 0xea, 0x1c, 0xbd,
  0xa5, 0x51, 0x4c, 0xbe, 0x06, 0x9d, 0x2d, 0x3e, 0xf7, 0xb8, 0x17, 0xbe,
  0xb7, 0xfc, 0x70, 0x3e, 0x87, 0x6b, 0x67, 0xbd, 0x28, 0xfe, 0x0c, 0xbe,
  0xe6, 0x87, 0xbc, 0xbd, 0x10, 0xfc, 0x2e, 0x3d, 0x86, 0x73, 0x57, 0xbe,
  0x5b, 0x98, 0xc6, 0xbd, 0xff, 0xf6, 0x6d, 0x3d, 0x83, 0x8a, 0xe0, 0xbc,
  0x0d, 0x81, 0x2d, 0xbd, 0xa7, 0x9b, 0x61, 0xbd, 0xe4, 0x36, 0xf4, 0x3b,
  0x73, 0x9e, 0x83, 0x3b, 0x94, 0x44, 0x73, 0xbe, 0xd2, 0xf7, 0x4d, 0x3e,
  0x5e, 0xa8, 0x4e, 0xbe, 0x90, 0x06, 0x34, 0xbd, 0x5c, 0x34, 0x7c, 0x3d,
  0xa0, 0x18, 0xae, 0x3d, 0xe6, 0x50, 0xcd, 0x3d, 0x54, 0x44, 0xbc, 0x3d,
  0x4e, 0x2e, 0x11, 0xbd, 0xd4, 0x0b, 0x9d, 0xbd, 0xe2, 0xe6, 0x3e, 0xbe,
  0x3a, 0x1e, 0x59, 0xbe, 0x70, 0xb7, 0x7d, 0xbe, 0x8e, 0x26, 0x11, 0xbd,
  0xad, 0x5f, 0x2e, 0xbb, 0x80, 0x80, 0xcc, 0xbd, 0x08, 0x4d, 0xa6, 0xbe,
  0x58, 0x48, 0x1c, 0xbd, 0x0e, 0x96, 0x49, 0xbe, 0x69, 0xe0, 0x67, 0xbe,
  0x8c, 0x16, 0xd4, 0xbd, 0x55, 0xae, 0x06, 0x3d, 0x43, 0xff, 0x6f, 0x3e,
  0xcc, 0x14, 0x57, 0x3c, 0xb6, 0x22, 0x81, 0xbc, 0x93, 0xba, 0x00, 0xbe,
  0xc3, 0x07, 0x25, 0xbc, 0x62, 0x6f, 0x1d, 0xbe, 0xe1, 0x55, 0x04, 0xbe,
  0xa6, 0xb7, 0x8f, 0xbe, 0x8a, 0xe9, 0xfa, 0x3d, 0x7c, 0x2d, 0x18, 0x3d,
  0x56, 0x22, 0xe8, 0xbd, 0x79, 0xf5, 0x35, 0xbf, 0x73, 0x45, 0x1d, 0xbb,
  0x65, 0x9d, 0xf5, 0x3d, 0x19, 0x36, 0xde, 0xbe, 0xdc, 0xf9, 0x14, 0x3f,
  0x62, 0x3f, 0x44, 0xbd, 0xa7, 0xfd, 0x73, 0x3e, 0x21, 0x25, 0x92, 0x3e,
  0x87, 0xf8, 0x77, 0xbe, 0x01, 0x9c, 0x6a, 0xbe, 0xb4, 0xc8, 0xdb, 0xbc,
  0x12, 0xd0, 0xc5, 0xbd, 0x9a, 0x86, 0xd8, 0xbd, 0x2c, 0xb0, 0x5c, 0xbe,
  0x56, 0x89, 0xa0, 0x3e, 0x83, 0x29, 0x4b, 0x3d, 0x6d, 0xfd, 0xb6, 0xbe,
  0x96, 0xf9, 0x9e, 0xbd, 0xb6, 0x8e, 0x8d, 0x3e, 0x2e, 0x14, 0x2b, 0x3e,
  0x40, 0xfe, 0x10, 0x3f, 0x26, 0x66, 0x82, 0xbd, 0x69, 0x73, 0x3e, 0x3c,
  0x82, 0xbf, 0x37, 0x3d, 0x34, 0x67, 0x75, 0xbd, 0x3f, 0x48, 0x88, 0x3e,
  0xfc, 0xb9, 0xaa, 0x3d, 0xbd, 0x24, 0x30, 0xbe, 0xe6, 0x5b, 0xbc, 0xbd,
  0x6d, 0x59, 0x2f, 0x3d, 0x20, 0xb2, 0xef, 0x3e, 0x92, 0xb1, 0x82, 0xbe,
  0x13, 0x67, 0x51, 0xbc, 0x85, 0x45, 0x06, 0x3e, 0x1d, 0xe7, 0xf6, 0x3c,
  0x29, 0x57, 0xc4, 0x3e, 0xc9, 0xd2, 0xae, 0x3e, 0x09, 0x39, 0x41, 0x3d,
  0xe3, 0x9b, 0xe2, 0x3b, 0x12, 0x33, 0x69, 0xbe, 0x95, 0xa7, 0x2b, 0xbe,
  0xc4, 0xdf, 0xae, 0x3e, 0xf4, 0x04, 0x90, 0x3c, 0x06, 0xbd, 0x48, 0xbe,
  0x8a, 0x89, 0xc6, 0xbe, 0xb4, 0xea, 0x02, 0xbe, 0x43, 0xf2, 0xa8, 0x3b,
  0x5c, 0x40, 0x01, 0xbf, 0x7a, 0x5a, 0x5c, 0x3e, 0xd3, 0x58, 0x42, 0xbd,
  0xf7, 0xa1, 0x70, 0xbe, 0x30, 0x93, 0xcd, 0x3c, 0xa5, 0x76, 0xf6, 0x3d,
  0xb0, 0xca, 0xa9, 0xbc, 0x66, 0x22, 0x5e, 0x3e, 0x8f, 0x18, 0x21, 0xbe,
  0xf5, 0x1a, 0x2a, 0xbe, 0xfe, 0xd3, 0xd7, 0x3d, 0x78, 0x71, 0x9b, 0xbd,
  0xe2, 0x40, 0x09, 0xbe, 0xb3, 0x89, 0xa0, 0xbd, 0x5d, 0xa3, 0x64, 0x3c,
  0x1b, 0x85, 0xa7, 0x3d, 0xcb, 0x59, 0xb9, 0xbe, 0xe4, 0x36, 0xa5, 0x3d,
  0x76, 0x3c, 0xc1, 0x3c, 0x85, 0xca, 0x10, 0xbe, 0x28, 0x8c, 0xa1, 0xbe,
  0xfb, 0xda, 0x6d, 0x3e, 0xe0, 0x5d, 0x46, 0xbd, 0x9c, 0xa5, 0x7f, 0x3e,
  0xa9, 0x4c, 0x10, 0x3d, 0x28, 0x70, 0x0c, 0xbe, 0xa5, 0x3d, 0xeb, 0x3d,
  0x4e, 0x19, 0x24, 0x3e, 0xa4, 0xdc, 0xa6, 0xbc, 0x79, 0x02, 0x87, 0xbd,
  0xe0, 0x4e, 0xc2, 0x3d, 0x65, 0x35, 0x87, 0x3e, 0x3f, 0x0b, 0xe0, 0x3d,
  0x32, 0x20, 0x7f, 0x3d, 0x47, 0xb3, 0x1f, 0x3d, 0x4d, 0x55, 0xcf, 0xbd,
  0xfc, 0x1f, 0x60, 0xbe, 0xcb, 0x06, 0x0a, 0x3f, 0xde, 0x20, 0xb2, 0xbd,
  0x01, 0x9f, 0xc1, 0x3e, 0xfd, 0x9c, 0x01, 0x3e, 0x63, 0x30, 0x1e, 0xbd,
  0x87, 0xcd, 0x64, 0xbd, 0xf4, 0x88, 0xd2, 0x3e, 0xec, 0x24, 0x88, 0x3d,
  0xb7, 0x54, 0x5d, 0x3e, 0xa3, 0x29, 0x3f, 0x3e, 0x61, 0x2a, 0xa5, 0x3e,
  0xe0, 0x23, 0xaa, 0x3c, 0x08, 0xfc, 0x5c, 0x3e, 0xa3, 0xb4, 0xc6, 0xbd,
  0xd7, 0x0c, 0x12, 0xbe, 0x20, 0x17, 0xcf, 0x3d, 0x1a, 0xe1, 0x3b, 0x3e,
  0x7a, 0x47, 0xc0, 0xbd, 0xfb, 0x7a, 0x37, 0xbe, 0x7b, 0x04, 0x61, 0x3d,
  0xc9, 0x66, 0xb1, 0x3d, 0x5e, 0xa8, 0xbd, 0x3e, 0xfa, 0x12, 0x5e, 0xbe,
  0x93, 0x6a, 0xb4, 0xbd, 0xdd, 0xb8, 0xa1, 0xbd, 0xbd, 0xb8, 0xbf, 0xbd,
  0x74, 0x7a, 0xd2, 0xbe, 0xa8, 0x21, 0x1b, 0xbe, 0x0d, 0xd1, 0xa4, 0x3d,
  0x47, 0x94, 0x29, 0x3d, 0x64, 0x24, 0x94, 0xbd, 0xf6, 0xe2, 0x48, 0x3d,
  0x50, 0x4a, 0x07, 0x3e, 0xf4, 0x6c, 0x84, 0xbe, 0x59, 0x1e, 0xc1, 0xbe,
  0xd8, 0xf8, 0xae, 0x3e, 0x26, 0x70, 0xd0, 0xbd, 0x3f, 0xb3, 0x87, 0x3e,
  0xc2, 0x1b, 0x95, 0xbe, 0x49, 0xcb, 0x51, 0xbd, 0xf0, 0x5d, 0x5f, 0x3e,
  0x8f, 0x20, 0xc9, 0xbd, 0x7d, 0x9a, 0xd0, 0xbd, 0x99, 0x02, 0xed, 0xbe,
  0x7e, 0x37, 0x05, 0xbd, 0x04, 0x74, 0x37, 0x3e, 0xc0, 0x28, 0x9b, 0xbd,
  0xdf, 0xfe, 0x86, 0xbe, 0xa8, 0xdb, 0x54, 0xbe, 0x05, 0xdf, 0x84, 0xbe,
  0xfb, 0x15, 0x6e, 0xbd, 0x46, 0x02, 0xf5, 0x3d, 0x05, 0x50, 0xb4, 0xbd,
  0x35, 0x28, 0xe0, 0xbd, 0xda, 0x50, 0x39, 0x3e, 0x64, 0x9f, 0xaf, 0xbc,
  0xc4, 0x9d, 0xb9, 0x3e, 0xad, 0x2a, 0xa1, 0xbe, 0xca, 0xdb, 0x57, 0xbc,
  0xb5, 0x46, 0x12, 0xbf, 0xce, 0x06, 0xd1, 0xbc, 0xc8, 0x1b, 0xaf, 0x3e,
  0x58, 0x78, 0x66, 0xbe, 0x18, 0xe2, 0x72, 0x3d, 0x4c, 0xb7, 0xeb, 0xbd,
  0x59, 0x9c, 0x41, 0x3d, 0xc5, 0x02, 0x18, 0xbe, 0xd4, 0x8e, 0x75, 0x3e,
  0xd7, 0xf3, 0x3c, 0x3c, 0x86, 0xd0, 0x04, 0x3e, 0xee, 0x9f, 0x2c, 0x3c,
  0x81, 0x53, 0xa6, 0x3d, 0x83, 0x4d, 0x5f, 0x3e, 0x20, 0x7b, 0xcd, 0xbb,
  0xe9, 0xd0, 0xab, 0xbc, 0xfe, 0x77, 0xa2, 0xbe, 0xe4, 0x33, 0xc5, 0x3d,
  0x4e, 0x14, 0xcf, 0x3e, 0x87, 0x19, 0xa7, 0xbc, 0x9a, 0x90, 0xe0, 0x3d,
  0x92, 0x60, 0xc2, 0x3e, 0x87, 0xd2, 0x9d, 0xbc, 0x3c, 0x4f, 0xc3, 0xbe,
  0x73, 0x40, 0xe0, 0xbb, 0xf6, 0x35, 0xf9, 0x3c, 0x2e, 0xe5, 0x31, 0x3e,
  0xb1, 0x82, 0xd6, 0x3d, 0x2d, 0xcd, 0x8b, 0x3d, 0x29, 0xef, 0x88, 0xbd,
  0xea, 0xad, 0x66, 0xbe, 0x2c, 0xe6, 0xef, 0xbd, 0x9f, 0xd5, 0x95, 0xbe,
  0x2f, 0xd7, 0xbe, 0xbd, 0x99, 0xf6, 0xc3, 0x3e, 0xec, 0x7c, 0xde, 0xbc,
  0x19, 0x56, 0xa2, 0x3e, 0x9d, 0x9b, 0xf0, 0x3e, 0xed, 0xeb, 0x5e, 0x3d,
  0x5a, 0xce, 0x98, 0xbd, 0x60, 0x19, 0x19, 0x3e, 0xe4, 0x8f, 0xf3, 0xbc,
  0xbd, 0x5d, 0xb0, 0x3e, 0x80, 0x23, 0xdc, 0x3d, 0x3b, 0x2a, 0x0e, 0xbe,
  0x59, 0x7e, 0x3f, 0x3e, 0xe4, 0x2a, 0x96, 0xbe, 0x13, 0xa5, 0xb9, 0xbe,
  0x10, 0x5d, 0xd7, 0xbe, 0x7f, 0x6f, 0xbe, 0xbd, 0x19, 0x94, 0x3e, 0x3e,
  0xaa, 0x7d, 0x12, 0xbf, 0x64, 0x4d, 0x41, 0xbe, 0x8a, 0x8d, 0x13, 0xbe,
  0x2d, 0x94, 0x7d, 0xbc, 0x9d, 0xae, 0xa7, 0xbe, 0xb7, 0x4e, 0x9b, 0x3e,
  0xa7, 0x11, 0x0a, 0xbd, 0x1f, 0x7d, 0x9a, 0x3e, 0xf3, 0x40, 0x3a, 0xbd,
  0xbe, 0x44, 0x0a, 0xbd, 0x87, 0xe5, 0x44, 0x3e, 0x03, 0x66, 0x51, 0xbe,
  0x03, 0x57, 0x8e, 0xbe, 0x6a, 0x38, 0x75, 0xbe, 0xe5, 0xb5, 0xf3, 0xbd,
  0x74, 0x03, 0x75, 0x3d, 0x7a, 0xdf, 0x96, 0xbe, 0xa6, 0x6b, 0x9b, 0xbe,
  0x5c, 0x06, 0x0a, 0x3e, 0xaf, 0x25, 0x78, 0xbe, 0x30, 0x6c, 0x1e, 0xbf,
  0xa5, 0xd8, 0x8a, 0x3d, 0x3c, 0x49, 0x56, 0x3d, 0x7a, 0xd2, 0x36, 0x3e,
  0x44, 0x7b, 0x74, 0xbe, 0x69, 0xa2, 0x7a, 0xbd, 0x36, 0xa9, 0x2a, 0xbd,
  0x4d, 0x2c, 0x63, 0xbe, 0x29, 0x0e, 0x9b, 0xbe, 0xbe, 0x32, 0xe7, 0xbd,
  0x38, 0x2f, 0xd2, 0x3d, 0xe1, 0xe7, 0xdd, 0xbe, 0x5e, 0x3a, 0xc1, 0xbe,
  0xff, 0x6c, 0x88, 0xbe, 0x22, 0x77, 0x4b, 0xbe, 0xd4, 0x04, 0xc3, 0x3d,
  0xa1, 0xf7, 0xcc, 0xbd, 0x15, 0x5c, 0x2c, 0xbf, 0x8b, 0xd8, 0x76, 0x3d,
  0x41, 0x1d, 0xec, 0xbd, 0xd0, 0x2d, 0x9e, 0xbd, 0x8f, 0x0f, 0xa0, 0x3d,
  0xde, 0x95, 0x0c, 0xbe, 0xec, 0x9b, 0xc6, 0xbd, 0xca, 0x70, 0x3a, 0xbe,
  0x1e, 0xd4, 0x97, 0x3e, 0x08, 0x49, 0x55, 0x3e, 0xf6, 0x43, 0x7d, 0xbe,
  0x64, 0x86, 0x3b, 0xbb, 0xfe, 0x22, 0xcd, 0xbe, 0xb9, 0xed, 0xfe, 0xbe,
  0x5e, 0xe0, 0xc9, 0x3d, 0xea, 0xc1, 0x3b, 0x3e, 0x63, 0xe1, 0x02, 0xbf,
  0x90, 0x61, 0x1b, 0x3c, 0x1e, 0x36, 0x0e, 0x3e, 0xa6, 0xdb, 0x95, 0xbc,
  0xfe, 0x3e, 0x35, 0x3e, 0x87, 0x4e, 0xc3, 0xbd, 0x0f, 0x61, 0x06, 0x3e,
  0xa1, 0x32, 0xaa, 0x3d, 0x32, 0x4b, 0xb7, 0x3e, 0x15, 0x8c, 0xdd, 0x3d,
  0x59, 0x6b, 0xbc, 0xbe, 0x9c, 0x09, 0xcc, 0x3e, 0xdd, 0xbc, 0xe8, 0xbd,
  0x79, 0x99, 0x94, 0xbe, 0x81, 0xe0, 0xc2, 0x3d, 0x9e, 0x51, 0x16, 0x3e,
  0xba, 0x26, 0x28, 0xbe, 0x85, 0x1c, 0x89, 0x3d, 0x60, 0x8f, 0x25, 0xbe,
  0xdc, 0x81, 0x93, 0xbe, 0x4f, 0xa6, 0xc2, 0x3d, 0xd1, 0xe2, 0x9e, 0xbd,
  0xdd, 0x90, 0x1c, 0x3d, 0xb3, 0xb0, 0x7c, 0x3d, 0xca, 0x5d, 0xd2, 0x3e,
  0x6e, 0x79, 0xc1, 0x3c, 0x4c, 0x8f, 0x8f, 0xbe, 0x85, 0xa9, 0x1b, 0x3e,
  0x4b, 0x52, 0x94, 0x3d, 0x7f, 0x26, 0x96, 0x3d, 0x97, 0xc4, 0xae, 0xbd,
  0xca, 0xae, 0x96, 0x3d, 0x01, 0x50, 0x34, 0xbe, 0xf8, 0xa4, 0xad, 0x3c,
  0xf9, 0xe3, 0x56, 0xbe, 0x53, 0x59, 0x6f, 0xbe, 0xbc, 0x20, 0xb2, 0x3d,
  0x98, 0x76, 0x2c, 0xbe, 0x58, 0x12, 0x87, 0xbc, 0xa2, 0x9b, 0x30, 0x3c,
  0xb7, 0x6f, 0xac, 0x3e, 0x8c, 0xac, 0xaf, 0x3b, 0x1e, 0x43, 0x15, 0xbe,
  0x92, 0x30, 0x88, 0x3e, 0x42, 0x80, 0x1b, 0xbe, 0x40, 0x62, 0x56, 0xbe,
  0x05, 0x7f, 0xfa, 0x3d, 0x78, 0x1a, 0x7e, 0x3d, 0xf4, 0x87, 0xa6, 0xbe,
  0xfa, 0x5e, 0x19, 0x3d, 0x62, 0xc7, 0x32, 0xbe, 0x14, 0xba, 0xa5, 0xbe,
  0xec, 0xc6, 0x6a, 0x3c, 0x01, 0x1e, 0xa9, 0xbe, 0xd7, 0x48, 0xb3, 0xbc,
  0x3a, 0x73, 0x28, 0xbd, 0xae, 0x6e, 0xa8, 0x3e, 0xf0, 0x57, 0x2a, 0x3e,
  0x2b, 0xf6, 0xa5, 0xbe, 0xf8, 0x7d, 0xc0, 0x3d, 0x5a, 0x5f, 0xe7, 0xbd,
  0xb3, 0x22, 0x8f, 0xbe, 0xb0, 0x4a, 0x13, 0x3d, 0x20, 0x27, 0xff, 0x3c,
  0x25, 0x48, 0xa0, 0xbe, 0xa2, 0x99, 0xdd, 0x3c, 0x80, 0x93, 0x88, 0xbe,
  0x88, 0xcd, 0x2e, 0xbe, 0x60, 0x00, 0x79, 0x3a, 0x96, 0xbf, 0x2e, 0xbe,
  0xf0, 0x76, 0xac, 0xbd, 0x3a, 0x2d, 0x80, 0xbd, 0x26, 0x35, 0xbb, 0xb8,
  0xb6, 0x0d, 0x88, 0x3d, 0x7b, 0x24, 0x9e, 0xbd, 0x26, 0x97, 0x1e, 0xbb,
  0xd8, 0xe9, 0xb2, 0xbb, 0x11, 0x38, 0xf3, 0xbd, 0xd1, 0x9a, 0x33, 0x3d,
  0x11, 0x1f, 0x4d, 0xbe, 0xad, 0x1a, 0x6f, 0xbe, 0xec, 0xb9, 0x98, 0x3c,
  0xc0, 0xd1, 0x92, 0xbe, 0x85, 0x53, 0x2b, 0xbb, 0x9f, 0xd7, 0x83, 0x3d,
  0xd8, 0x75, 0x64, 0xbd, 0x52, 0x9a, 0xb7, 0x3e, 0x3a, 0xf0, 0x26, 0xbe,
  0x61, 0xe3, 0x06, 0xbe, 0xd1, 0x97, 0x08, 0xbf, 0x7b, 0x05, 0x57, 0xbb,
  0x1c, 0x0a, 0x85, 0xbd, 0xe6, 0x71, 0x7a, 0xbe, 0xf6, 0x8e, 0x11, 0x3e,
  0x63, 0x0a, 0x9f, 0x3e, 0x06, 0x3c, 0x82, 0x3e, 0xe2, 0x9f, 0x8b, 0x3c,
  0x50, 0xc4, 0xd8, 0xbe, 0x74, 0xde, 0x39, 0xbe, 0x4a, 0x66, 0x3c, 0x3c,
  0x7b, 0xc4, 0xe8, 0x3d, 0x2a, 0x65, 0x93, 0xbe, 0xf4, 0x81, 0x83, 0xbe,
  0xcd, 0x05, 0x93, 0x3e, 0x72, 0x3e, 0xc1, 0x3d, 0xf8, 0x34, 0x1b, 0xbe,
  0x2e, 0x20, 0x2c, 0xbe, 0x10, 0x65, 0xa5, 0x3d, 0xff, 0x74, 0x77, 0x3e,
  0x5f, 0x87, 0x86, 0x3e, 0x76, 0x5e, 0x44, 0x3d, 0x87, 0x4c, 0x11, 0xbe,
  0x1f, 0xd0, 0x6d, 0xbe, 0x52, 0x67, 0x2b, 0xbe, 0xfa, 0x90, 0x54, 0x3e,
  0x4b, 0x1e, 0x4f, 0x3d, 0x52, 0x9e, 0x93, 0x3d, 0xb7, 0xfd, 0xa6, 0xbd,
  0xb4, 0x5b, 0x7f, 0xbd, 0xd0, 0x0f, 0x15, 0x3f, 0x15, 0xc1, 0x01, 0x3d,
  0x74, 0x08, 0x3c, 0x3e, 0x8d, 0x5b, 0x31, 0xbd, 0x5b, 0x74, 0x53, 0x3d,
  0x85, 0xb4, 0x81, 0x3e, 0x3d, 0x81, 0x9f, 0xbb, 0x7d, 0x63, 0xcd, 0x3d,
  0xb6, 0xc6, 0xf4, 0x3c, 0x07, 0xbd, 0x63, 0xbe, 0xde, 0xd5, 0x5c, 0xbe,
  0x33, 0xec, 0x67, 0x3e, 0xf4, 0x23, 0x36, 0x3e, 0x51, 0xdc, 0x4c, 0x3c,
  0x10, 0xdc, 0x28, 0x3c, 0x81, 0xf6, 0xc2, 0xbc, 0xe1, 0x28, 0x0d, 0x3f,
  0x65, 0x9b, 0x31, 0xbd, 0x89, 0xff, 0x2a, 0x3d, 0xa2, 0x71, 0x34, 0xbd,
  0x24, 0x38, 0x60, 0x3d, 0x67, 0x05, 0x9e, 0x3e, 0x75, 0xbc, 0xc4, 0xbe,
  0x8b, 0x18, 0x85, 0x3d, 0x5a, 0x35, 0x29, 0x3d, 0x94, 0x0c, 0x6b, 0x3d,
  0x27, 0xaf, 0x4d, 0xbe, 0x31, 0x84, 0x18, 0x3e, 0xec, 0x48, 0x90, 0x3b,
  0x32, 0xfd, 0x8e, 0x3c, 0x59, 0x40, 0xf3, 0xbc, 0xbe, 0x47, 0x49, 0x3d,
  0xcf, 0x8e, 0xbe, 0x3e, 0xb7, 0x6c, 0x02, 0xbe, 0x48, 0x2f, 0xe0, 0x3d,
  0xe5, 0x4d, 0x47, 0xbd, 0xaf, 0xd7, 0xfb, 0xbd, 0x29, 0x37, 0x84, 0xbe,
  0xec, 0xa1, 0x44, 0xbe, 0x9c, 0x0d, 0xbf, 0x3d, 0xb4, 0x9d, 0xb2, 0x3c,
  0x50, 0x90, 0x11, 0x3d, 0x06, 0x09, 0x51, 0xbd, 0xab, 0x14, 0x34, 0x3e,
  0xb1, 0xd3, 0x1a, 0x3e, 0xd6, 0x4d, 0xbc, 0x3c, 0xb0, 0x6b, 0xfb, 0xbd,
  0xd6, 0x4c, 0xe1, 0x3d, 0x8f, 0xd2, 0x2c, 0x3e, 0x98, 0x0c, 0x0f, 0xbc,
  0xc8, 0x11, 0x07, 0x3e, 0xb2, 0xf2, 0x4b, 0xbc, 0x15, 0xe9, 0xd6, 0xbc,
  0x52, 0xf4, 0x96, 0xbe, 0x65, 0xf5, 0x58, 0x3e, 0xce, 0x27, 0x34, 0xbd,
  0xff, 0x5f, 0x45, 0x3e, 0xe6, 0x6b, 0xb6, 0x3c, 0x79, 0x7e, 0x31, 0xbd,
  0x15, 0x85, 0xf1, 0x3d, 0xbd, 0xf7, 0xde, 0x3d, 0x01, 0x72, 0x8e, 0x3d,
  0x12, 0x56, 0xc4, 0xbb, 0x52, 0x8b, 0x16, 0x3e, 0x0b, 0x4f, 0x7f, 0x3d,
  0x30, 0x19, 0x22, 0x3d, 0xca, 0xc5, 0xb7, 0x3e, 0xfd, 0x9c, 0x8e, 0xbd,
  0xcc, 0x96, 0x14, 0xbe, 0x85, 0xe3, 0xbf, 0x3d, 0x73, 0xd8, 0x3d, 0x3e,
  0x78, 0x33, 0x02, 0x3e, 0xca, 0x66, 0x2f, 0x3d, 0xb7, 0xbc, 0x57, 0x3d,
  0xa5, 0xe3, 0x27, 0x3c, 0xfd, 0x55, 0x97, 0x3e, 0x6f, 0x5d, 0x6c, 0x3d,
  0xdd, 0x88, 0x26, 0xbe, 0x42, 0xc8, 0x04, 0xbe, 0x67, 0x55, 0xd8, 0xbd,
  0xa9, 0x03, 0x58, 0xbe, 0x5c, 0x69, 0xb6, 0x3d, 0xc2, 0x92, 0xd0, 0x3d,
  0x12, 0x2d, 0xf7, 0xbd, 0x4d, 0x84, 0x42, 0x3e, 0x04, 0xb8, 0x29, 0xbe,
  0x5f, 0x64, 0xa2, 0xbe, 0x71, 0xca, 0xeb, 0x3d, 0x15, 0xb7, 0xaa, 0xbd,
  0x50, 0xa9, 0x37, 0xbe, 0x2a, 0x37, 0x58, 0xbe, 0x73, 0xd7, 0x5f, 0xbd,
  0x25, 0xa4, 0x88, 0x3e, 0x7c, 0x7b, 0x72, 0xbe, 0x4a, 0xe3, 0xda, 0xbb,
  0x8b, 0x1a, 0x8b, 0xbe, 0x80, 0x19, 0x30, 0xbe, 0x21, 0xf0, 0xea, 0x3e,
  0x86, 0xfa, 0x86, 0x3e, 0x7a, 0x45, 0xa4, 0xba, 0xcc, 0x44, 0xca, 0x3d,
  0x2a, 0x7e, 0x3c, 0xbe, 0xcd, 0x96, 0x24, 0xbe, 0x74, 0x69, 0x9b, 0x3c,
  0xa8, 0xe9, 0x1b, 0x3e, 0x8e, 0xa4, 0x12, 0xbe, 0xe7, 0x9c, 0x20, 0xbe,
  0x85, 0xf7, 0xfa, 0x3d, 0x9c, 0x07, 0x7d, 0xbe, 0x83, 0x69, 0xff, 0x3b,
  0xfb, 0x4c, 0xca, 0x3d, 0xf6, 0x19, 0x6e, 0x3d, 0x32, 0xc5, 0xf2, 0x3c,
  0xa1, 0xe8, 0xd6, 0x3e, 0x7c, 0x55, 0x5d, 0x3e, 0xfb, 0x73, 0xb5, 0xbd,
  0xd9, 0x06, 0x37, 0x3e, 0xd0, 0x02, 0xe3, 0xbb, 0xca, 0x9b, 0x42, 0xbd,
  0x87, 0xe4, 0x0f, 0x3d, 0xd6, 0x38, 0x22, 0xbe, 0x28, 0x34, 0x66, 0xbd,
  0xa8, 0x62, 0x21, 0xbe, 0xb7, 0xea, 0x4c, 0xbd, 0x93, 0x15, 0x42, 0x3e,
  0x14, 0xea, 0x25, 0xbd, 0x77, 0x32, 0x33, 0x3e, 0x68, 0x74, 0x91, 0xbe,
  0x76, 0x0d, 0xcb, 0xbd, 0x71, 0xe5, 0x96, 0x3e, 0xa9, 0x69, 0x82, 0x3e,
  0xee, 0x59, 0xa5, 0x3d, 0x0b, 0x27, 0x88, 0x3c, 0x95, 0x32, 0xb3, 0xbc,
  0xda, 0xc6, 0xdc, 0x3d, 0x04, 0x10, 0x27, 0xbd, 0x8e, 0x7a, 0xa4, 0xbd,
  0x7a, 0xac, 0x37, 0x3d, 0x35, 0xa0, 0xb7, 0x3d, 0xd1, 0x68, 0x4a, 0xbd,
  0xec, 0x09, 0x61, 0x3d, 0xa6, 0x89, 0x1c, 0xbd, 0x4e, 0x0d, 0xb1, 0x3d,
  0x2b, 0x8d, 0x17, 0xbe, 0x70, 0xa5, 0xa0, 0xbd, 0x75, 0xef, 0x98, 0x3e,
  0xe1, 0xb8, 0x06, 0x3e, 0xb0, 0x70, 0xa2, 0xbd, 0xcf, 0x44, 0x87, 0x3e,
  0x18, 0x68, 0x87, 0x3d, 0xb5, 0xc0, 0x7b, 0x3d, 0x06, 0x71, 0x3d, 0x3d,
  0xe6, 0xd7, 0x73, 0xbc, 0xd0, 0xe8, 0xd4, 0xbd, 0x9d, 0xc0, 0x82, 0xbd,
  0xde, 0xd6, 0xc8, 0xbd, 0xd4, 0x9f, 0xfb, 0xbd, 0x9e, 0xa2, 0x10, 0xbd,
  0xe3, 0x33, 0x94, 0xbd, 0xa9, 0x38, 0x32, 0xbe, 0xde, 0x5c, 0xfd, 0xbd,
  0x8b, 0x76, 0x3d, 0x3e, 0xca, 0x7e, 0xa1, 0x3e, 0x10, 0xcc, 0x56, 0xbd,
  0xa3, 0x7e, 0xad, 0xbd, 0x9a, 0xb7, 0x2f, 0xbd, 0x75, 0xcf, 0x5b, 0x3c,
  0xf0, 0x46, 0xfd, 0x3d, 0xc8, 0x54, 0x1a, 0xbe, 0xb8, 0x47, 0x53, 0xbe,
  0x35, 0x2a, 0x4b, 0xbe, 0xc2, 0x4b, 0x17, 0xbe, 0xbd, 0xe8, 0xa4, 0x3d,
  0x28, 0xdd, 0x6a, 0xbd, 0x77, 0x33, 0x97, 0xbd, 0x61, 0xd0, 0x52, 0xbe,
  0xb2, 0x30, 0x4d, 0xbe, 0x1e, 0x88, 0x0d, 0x3e, 0xf4, 0x6e, 0x01, 0x3e,
  0x0d, 0x0f, 0xab, 0x3b, 0x8d, 0x96, 0x9b, 0x3d, 0xa0, 0x1e, 0xe0, 0xbd,
  0x53, 0x03, 0xbe, 0xbd, 0xbc, 0xfd, 0x57, 0x3e, 0x85, 0x64, 0xed, 0xba,
  0x46, 0xa8, 0x8e, 0xbe, 0xa6, 0xc9, 0x34, 0xbc, 0x8c, 0x45, 0x8f, 0xbd,
  0x93, 0x55, 0x8b, 0xbd, 0x62, 0xfd, 0xff, 0xff, 0x10, 0x00, 0x00, 0x00,
  0x07, 0x00, 0x00, 0x00, 0x14, 0x00, 0x00, 0x00, 0x2c, 0x00, 0x00, 0x00,
  0x02, 0x00, 0x00, 0x00, 0x10, 0x00, 0x00, 0x00, 0x70, 0x00, 0x00, 0x00,
  0x17, 0x00, 0x00, 0x00, 0x73, 0x65, 0x71, 0x75, 0x65, 0x6e, 0x74, 0x69,
  0x61, 0x6c, 0x2f, 0x64, 0x65, 0x6e, 0x73, 0x65, 0x2f, 0x4d, 0x61, 0x74,
  0x4d, 0x75, 0x6c, 0x00, 0xcc, 0xfc, 0xff, 0xff, 0xd6, 0xfd, 0xff, 0xff,
  0x04, 0x00, 0x00, 0x00, 0x08, 0x00, 0x00, 0x00, 0xff, 0xff, 0xff, 0xff,
  0x70, 0x00, 0x00, 0x00, 0x00, 0x00, 0x0e, 0x00, 0x18, 0x00, 0x08, 0x00,
  0x07, 0x00, 0x0c, 0x00, 0x10, 0x00, 0x14, 0x00, 0x0e, 0x00, 0x00, 0x00,
  0x00, 0x00, 0x00, 0x02, 0x10, 0x00, 0x00, 0x00, 0x06, 0x00, 0x00, 0x00,
  0x10, 0x00, 0x00, 0x00, 0x2c, 0x00, 0x00, 0x00, 0x01, 0x00, 0x00, 0x00,
  0x02, 0x00, 0x00, 0x00, 0x18, 0x00, 0x00, 0x00, 0x73, 0x65, 0x71, 0x75,
  0x65, 0x6e, 0x74, 0x69, 0x61, 0x6c, 0x2f, 0x66, 0x6c, 0x61, 0x74, 0x74,
  0x65, 0x6e, 0x2f, 0x43, 0x6f, 0x6e, 0x73, 0x74, 0x00, 0x00, 0x00, 0x00,
  0x34, 0xfd, 0xff, 0xff, 0x3e, 0xfe, 0xff, 0xff, 0x04, 0x00, 0x00, 0x00,
  0x10, 0x00, 0x00, 0x00, 0xe5, 0xf9, 0x0d, 0x3f, 0xb9, 0x52, 0x22, 0xc0,
  0xcc, 0x04, 0x99, 0x3f, 0x8c, 0x88, 0x5f, 0xbf, 0x26, 0xfe, 0xff, 0xff,
  0x10, 0x00, 0x00, 0x00, 0x05, 0x00, 0x00, 0x00, 0x10, 0x00, 0x00, 0x00,
  0x44, 0x00, 0x00, 0x00, 0x01, 0x00, 0x00, 0x00, 0x04, 0x00, 0x00, 0x00,
  0x32, 0x00, 0x00, 0x00, 0x73, 0x65, 0x71, 0x75, 0x65, 0x6e, 0x74, 0x69,
  0x61, 0x6c, 0x2f, 0x64, 0x65, 0x6e, 0x73, 0x65, 0x5f, 0x31, 0x2f, 0x42,
  0x69, 0x61, 0x73, 0x41, 0x64, 0x64, 0x2f, 0x52, 0x65, 0x61, 0x64, 0x56,
  0x61, 0x72, 0x69, 0x61, 0x62, 0x6c, 0x65, 0x4f, 0x70, 0x2f, 0x72, 0x65,
  0x73, 0x6f, 0x75, 0x72, 0x63, 0x65, 0x00, 0x00, 0xa8, 0xfd, 0xff, 0xff,
  0xb2, 0xfe, 0xff, 0xff, 0x04, 0x00, 0x00, 0x00, 0x40, 0x00, 0x00, 0x00,
  0x70, 0xf6, 0xea, 0xbf, 0x7b, 0xba, 0x42, 0xbf, 0x7f, 0x80, 0xa5, 0x3f,
  0x74, 0x03, 0xbd, 0xbe, 0x5a, 0x85, 0x30, 0x40, 0x96, 0x30, 0xbf, 0xbe,
  0xf7, 0x6f, 0x5d, 0xbf, 0xe3, 0x56, 0x79, 0xbe, 0xff, 0x03, 0xae, 0xbe,
  0xd1, 0x36, 0x16, 0xbf, 0x5e, 0x67, 0x39, 0xbe, 0x1e, 0x45, 0x93, 0x3f,
  0x03, 0xfd, 0x91, 0xbf, 0x9f, 0xa4, 0x02, 0x40, 0xac, 0x0c, 0xb5, 0xbf,
  0xc3, 0xc1, 0xb0, 0xbc, 0xca, 0xfe, 0xff, 0xff, 0x10, 0x00, 0x00, 0x00,
  0x04, 0x00, 0x00, 0x00, 0x10, 0x00, 0x00, 0x00, 0x44, 0x00, 0x00, 0x00,
  0x01, 0x00, 0x00, 0x00, 0x10, 0x00, 0x00, 0x00, 0x30, 0x00, 0x00, 0x00,
  0x73, 0x65, 0x71, 0x75, 0x65, 0x6e, 0x74, 0x69, 0x61, 0x6c, 0x2f, 0x64,
  0x65, 0x6e, 0x73, 0x65, 0x2f, 0x42, 0x69, 0x61, 0x73, 0x41, 0x64, 0x64,
  0x2f, 0x52, 0x65, 0x61, 0x64, 0x56, 0x61, 0x72, 0x69, 0x61, 0x62, 0x6c,
  0x65, 0x4f, 0x70, 0x2f, 0x72, 0x65, 0x73, 0x6f, 0x75, 0x72, 0x63, 0x65,
  0x00, 0x00, 0x00, 0x00, 0x4c, 0xfe, 0xff, 0xff, 0x56, 0xff, 0xff, 0xff,
  0x04, 0x00, 0x00, 0x00, 0x40, 0x00, 0x00, 0x00, 0x2d, 0x52, 0xb0, 0xbc,
  0x90, 0x78, 0xff, 0xbf, 0x0c, 0xaa, 0x18, 0xbf, 0x19, 0x2a, 0x52, 0xbf,
  0x19, 0x9e, 0xae, 0xbe, 0x5e, 0x1c, 0xc1, 0x3d, 0x66, 0x0b, 0x12, 0xc0,
  0x56, 0xe6, 0xb1, 0xbf, 0x00, 0x6c, 0xaa, 0xbf, 0x0c, 0xc8, 0x97, 0x40,
  0xf4, 0x3f, 0xab, 0x3e, 0x1f, 0xb4, 0x87, 0xbe, 0x01, 0x65, 0xf8, 0xbf,
  0xbf, 0xa4, 0x4a, 0x3f, 0x1e, 0xab, 0x3a, 0xbf, 0xcc, 0x44, 0xc5, 0xbe,
  0x6e, 0xff, 0xff, 0xff, 0x10, 0x00, 0x00, 0x00, 0x03, 0x00, 0x00, 0x00,
  0x10, 0x00, 0x00, 0x00, 0x48, 0x00, 0x00, 0x00, 0x01, 0x00, 0x00, 0x00,
  0x10, 0x00, 0x00, 0x00, 0x33, 0x00, 0x00, 0x00, 0x73, 0x65, 0x71, 0x75,
  0x65, 0x6e, 0x74, 0x69, 0x61, 0x6c, 0x2f, 0x63, 0x6f, 0x6e, 0x76, 0x32,
  0x64, 0x5f, 0x31, 0x2f, 0x42, 0x69, 0x61, 0x73, 0x41, 0x64, 0x64, 0x2f,
  0x52, 0x65, 0x61, 0x64, 0x56, 0x61, 0x72, 0x69, 0x61, 0x62, 0x6c, 0x65,
  0x4f, 0x70, 0x2f, 0x72, 0x65, 0x73, 0x6f, 0x75, 0x72, 0x63, 0x65, 0x00,
  0x04, 0x00, 0x06, 0x00, 0x04, 0x00, 0x00, 0x00, 0x00, 0x00, 0x06, 0x00,
  0x08, 0x00, 0x04, 0x00, 0x06, 0x00, 0x00, 0x00, 0x04, 0x00, 0x00, 0x00,
  0x20, 0x00, 0x00, 0x00, 0x10, 0xeb, 0xe8, 0xbf, 0xa2, 0xed, 0xd6, 0x3d,
  0x5f, 0x78, 0x99, 0xbf, 0x74, 0x61, 0x09, 0xc0, 0xc4, 0x89, 0xaa, 0xbf,
  0x0b, 0x5a, 0x33, 0x3f, 0x72, 0x2b, 0xff, 0xbf, 0xbc, 0x2c, 0x58, 0xbf,
  0x00, 0x00, 0x0e, 0x00, 0x14, 0x00, 0x04, 0x00, 0x00, 0x00, 0x08, 0x00,
  0x0c, 0x00, 0x10, 0x00, 0x0e, 0x00, 0x00, 0x00, 0x10, 0x00, 0x00, 0x00,
  0x02, 0x00, 0x00, 0x00, 0x10, 0x00, 0x00, 0x00, 0x44, 0x00, 0x00, 0x00,
  0x01, 0x00, 0x00, 0x00, 0x08, 0x00, 0x00, 0x00, 0x31, 0x00, 0x00, 0x00,
  0x73, 0x65, 0x71, 0x75, 0x65, 0x6e, 0x74, 0x69, 0x61, 0x6c, 0x2f, 0x63,
  0x6f, 0x6e, 0x76, 0x32, 0x64, 0x2f, 0x42, 0x69, 0x61, 0x73, 0x41, 0x64,
  0x64, 0x2f, 0x52, 0x65, 0x61, 0x64, 0x56, 0x61, 0x72, 0x69, 0x61, 0x62,
  0x6c, 0x65, 0x4f, 0x70, 0x2f, 0x72, 0x65, 0x73, 0x6f, 0x75, 0x72, 0x63,
  0x65, 0x00, 0x00, 0x00, 0x90, 0xff, 0xff, 0xff, 0x14, 0x00, 0x18, 0x00,
  0x04, 0x00, 0x00, 0x00, 0x08, 0x00, 0x0c, 0x00, 0x10, 0x00, 0x00, 0x00,
  0x00, 0x00, 0x14, 0x00, 0x14, 0x00, 0x00, 0x00, 0x14, 0x00, 0x00, 0x00,
  0x01, 0x00, 0x00, 0x00, 0x20, 0x00, 0x00, 0x00, 0x44, 0x00, 0x00, 0x00,
  0x2c, 0x00, 0x00, 0x00, 0x04, 0x00, 0x00, 0x00, 0x01, 0x00, 0x00, 0x00,
  0x40, 0x00, 0x00, 0x00, 0x03, 0x00, 0x00, 0x00, 0x01, 0x00, 0x00, 0x00,
  0x0c, 0x00, 0x00, 0x00, 0x63, 0x6f, 0x6e, 0x76, 0x32, 0x64, 0x5f, 0x69,
  0x6e, 0x70, 0x75, 0x74, 0x00, 0x00, 0x00, 0x00, 0x04, 0x00, 0x00, 0x00,
  0xff, 0xff, 0xff, 0xff, 0x40, 0x00, 0x00, 0x00, 0x03, 0x00, 0x00, 0x00,
  0x01, 0x00, 0x00, 0x00, 0xfc, 0xff, 0xff, 0xff, 0x04, 0x00, 0x04, 0x00,
  0x04, 0x00, 0x00, 0x00
  // Paste the data of the char array in `src/model.cc` here
};

unsigned int model_tflite_len = 13120;// Fill the int in `src/model.cc` here